{
  "version": "1.0",
  "truncation": null,
  "padding": null,
  "added_tokens": [
    {
      "id": 0,
      "content": "[UNK]",
      "single_word": false,
      "lstrip": false,
      "rstrip": false,
      "normalized": false,
      "special": true
    },
    {
      "id": 1,
      "content": "<EPIC>",
      "single_word": false,
      "lstrip": false,
      "rstrip": false,
      "normalized": false,
      "special": true
    },
    {
      "id": 2,
      "content": "<PYTHON>",
      "single_word": false,
      "lstrip": false,
      "rstrip": false,
      "normalized": false,
      "special": true
    },
    {
      "id": 3,
      "content": "<JAVASCRIPT>",
      "single_word": false,
      "lstrip": false,
      "rstrip": false,
      "normalized": false,
      "special": true
    },
    {
      "id": 4,
      "content": "<WEB>",
      "single_word": false,
      "lstrip": false,
      "rstrip": false,
      "normalized": false,
      "special": true
    },
    {
      "id": 5,
      "content": "<USER>",
      "single_word": false,
      "lstrip": false,
      "rstrip": false,
      "normalized": false,
      "special": true
    },
    {
      "id": 6,
      "content": "<AI>",
      "single_word": false,
      "lstrip": false,
      "rstrip": false,
      "normalized": false,
      "special": true
    },
    {
      "id": 7,
      "content": "<END>",
      "single_word": false,
      "lstrip": false,
      "rstrip": false,
      "normalized": false,
      "special": true
    }
  ],
  "normalizer": null,
  "pre_tokenizer": {
    "type": "ByteLevel",
    "add_prefix_space": true,
    "trim_offsets": true,
    "use_regex": true
  },
  "post_processor": null,
  "decoder": {
    "type": "ByteLevel",
    "add_prefix_space": true,
    "trim_offsets": true,
    "use_regex": true
  },
  "model": {
    "type": "BPE",
    "dropout": null,
    "unk_token": "[UNK]",
    "continuing_subword_prefix": null,
    "end_of_word_suffix": null,
    "fuse_unk": false,
    "byte_fallback": false,
    "ignore_merges": false,
    "vocab": {
      "[UNK]": 0,
      "<EPIC>": 1,
      "<PYTHON>": 2,
      "<JAVASCRIPT>": 3,
      "<WEB>": 4,
      "<USER>": 5,
      "<AI>": 6,
      "<END>": 7,
      "!": 8,
      "\"": 9,
      "#": 10,
      "$": 11,
      "%": 12,
      "&": 13,
      "'": 14,
      "(": 15,
      ")": 16,
      "*": 17,
      "+": 18,
      ",": 19,
      "-": 20,
      ".": 21,
      "/": 22,
      "0": 23,
      "1": 24,
      "2": 25,
      "3": 26,
      "4": 27,
      "5": 28,
      "6": 29,
      "7": 30,
      "8": 31,
      "9": 32,
      ":": 33,
      ";": 34,
      "<": 35,
      "=": 36,
      ">": 37,
      "?": 38,
      "@": 39,
      "A": 40,
      "B": 41,
      "C": 42,
      "D": 43,
      "E": 44,
      "F": 45,
      "G": 46,
      "H": 47,
      "I": 48,
      "J": 49,
      "K": 50,
      "L": 51,
      "M": 52,
      "N": 53,
      "O": 54,
      "P": 55,
      "Q": 56,
      "R": 57,
      "S": 58,
      "T": 59,
      "U": 60,
      "V": 61,
      "W": 62,
      "X": 63,
      "Y": 64,
      "Z": 65,
      "[": 66,
      "\\": 67,
      "]": 68,
      "^": 69,
      "_": 70,
      "`": 71,
      "a": 72,
      "b": 73,
      "c": 74,
      "d": 75,
      "e": 76,
      "f": 77,
      "g": 78,
      "h": 79,
      "i": 80,
      "j": 81,
      "k": 82,
      "l": 83,
      "m": 84,
      "n": 85,
      "o": 86,
      "p": 87,
      "q": 88,
      "r": 89,
      "s": 90,
      "t": 91,
      "u": 92,
      "v": 93,
      "w": 94,
      "x": 95,
      "y": 96,
      "z": 97,
      "{": 98,
      "|": 99,
      "}": 100,
      "~": 101,
      "Ċ": 102,
      "č": 103,
      "Ġ": 104,
      "Ġt": 105,
      "Ġa": 106,
      "in": 107,
      "he": 108,
      "re": 109,
      "on": 110,
      "Ġthe": 111,
      "at": 112,
      "er": 113,
      "Ġs": 114,
      "en": 115,
      "Ġo": 116,
      "Ġc": 117,
      "is": 118,
      "Ġw": 119,
      "or": 120,
      "es": 121,
      "it": 122,
      "ed": 123,
      "Ġp": 124,
      "an": 125,
      "al": 126,
      "Ġf": 127,
      "Ġan": 128,
      "Ġb": 129,
      "ar": 130,
      "Ġof": 131,
      "Ġd": 132,
      "ing": 133,
      "Ġin": 134,
      "ion": 135,
      "Ġm": 136,
      "--": 137,
      "ic": 138,
      "ou": 139,
      "le": 140,
      "as": 141,
      "Ġand": 142,
      "Ġto": 143,
      "ro": 144,
      "ent": 145,
      "ct": 146,
      "Ġth": 147,
      "Ġh": 148,
      "Ġe": 149,
      "Ġre": 150,
      "et": 151,
      "Ġn": 152,
      "Ġl": 153,
      "st": 154,
      "el": 155,
      "om": 156,
      "il": 157,
      "id": 158,
      "im": 159,
      "ig": 160,
      "Ġ(": 161,
      "Ġis": 162,
      "----": 163,
      "čĊ": 164,
      "ot": 165,
      "ĠT": 166,
      "am": 167,
      "Ġg": 168,
      "ve": 169,
      "ol": 170,
      "ut": 171,
      "se": 172,
      "ation": 173,
      "ac": 174,
      "Ġu": 175,
      "ĠI": 176,
      "Ġfor": 177,
      "ĠS": 178,
      "ur": 179,
      "ly": 180,
      "ad": 181,
      "ow": 182,
      "Ġbe": 183,
      "ĠA": 184,
      "Ġ<": 185,
      "Ġthat": 186,
      "ith": 187,
      "ul": 188,
      "ĠC": 189,
      "Ġon": 190,
      "Ġst": 191,
      "if": 192,
      "Ġ1": 193,
      "ce": 194,
      "ver": 195,
      "Ġcon": 196,
      "Ġwith": 197,
      "ay": 198,
      "ir": 199,
      "Ġde": 200,
      "od": 201,
      "Ġas": 202,
      "ab": 203,
      "ch": 204,
      "Ġy": 205,
      "Ġpro": 206,
      "00": 207,
      "os": 208,
      "qu": 209,
      "Ġ$": 210,
      "Ġal": 211,
      "ter": 212,
      "Ġv": 213,
      "um": 214,
      "ri": 215,
      "ag": 216,
      "pe": 217,
      "ate": 218,
      "nd": 219,
      "her": 220,
      "ĠP": 221,
      "ĠM": 222,
      "res": 223,
      "ere": 224,
      "==": 225,
      "Ġit": 226,
      "Ġ\\": 227,
      "ra": 228,
      "Ġwh": 229,
      "em": 230,
      "ĠThe": 231,
      "Ġ2": 232,
      "est": 233,
      "Ġex": 234,
      "pp": 235,
      "us": 236,
      "--------": 237,
      "ist": 238,
      "ant": 239,
      "ĠB": 240,
      "Ġcom": 241,
      "un": 242,
      "ht": 243,
      "Ġor": 244,
      "Ġby": 245,
      "Ġsu": 246,
      "iv": 247,
      "th": 248,
      "ect": 249,
      "ĠD": 250,
      "Ġ=": 251,
      "Ġare": 252,
      "Ġr": 253,
      "ment": 254,
      "ess": 255,
      "ain": 256,
      "Ġhe": 257,
      "..": 258,
      "oc": 259,
      "Ġwas": 260,
      "and": 261,
      "Ġat": 262,
      "ers": 263,
      "rom": 264,
      "ĠH": 265,
      "nt": 266,
      "Ġyou": 267,
      "Ġ-": 268,
      "Ġse": 269,
      "ity": 270,
      "ĠF": 271,
      "pt": 272,
      "ore": 273,
      "end": 274,
      "ld": 275,
      "ĠL": 276,
      "ĠW": 277,
      "ĠR": 278,
      "EN": 279,
      "op": 280,
      "ive": 281,
      "ill": 282,
      "Ġnot": 283,
      "ke": 284,
      "ud": 285,
      "Ġha": 286,
      "**": 287,
      "ort": 288,
      "Ġfrom": 289,
      "pl": 290,
      "ĠN": 291,
      "Ġne": 292,
      "Ġ\"": 293,
      "art": 294,
      "ell": 295,
      "ight": 296,
      "ure": 297,
      "Ġthis": 298,
      "ĠE": 299,
      "Ġsh": 300,
      "END": 301,
      "ial": 302,
      "Ġ0": 303,
      "{\\": 304,
      "ction": 305,
      "ies": 306,
      "ated": 307,
      "Ġwe": 308,
      "ĠG": 309,
      "Ġch": 310,
      "ine": 311,
      "ĠO": 312,
      "Ġ*": 313,
      "per": 314,
      "our": 315,
      "all": 316,
      "og": 317,
      "ue": 318,
      "iz": 319,
      "ich": 320,
      "Ġhave": 321,
      ").": 322,
      "ame": 323,
      "ff": 324,
      "'s": 325,
      "ge": 326,
      "able": 327,
      "Ġle": 328,
      "ath": 329,
      "ould": 330,
      "ical": 331,
      "Ġus": 332,
      "Ġcan": 333,
      "ib": 334,
      "Ġres": 335,
      "Ġ3": 336,
      "Ġk": 337,
      "Ġen": 338,
      "te": 339,
      "cl": 340,
      "ust": 341,
      "age": 342,
      "Ġcomp": 343,
      "ard": 344,
      "ult": 345,
      "rou": 346,
      "Ġun": 347,
      "are": 348,
      "ie": 349,
      "ther": 350,
      "act": 351,
      "Ġtr": 352,
      "Ġ[": 353,
      "Ġim": 354,
      "====": 355,
      "ase": 356,
      "ost": 357,
      "ans": 358,
      "ph": 359,
      "orm": 360,
      "Ġall": 361,
      "Ġwhe": 362,
      "Ġcont": 363,
      "Ġcl": 364,
      "ack": 365,
      "01": 366,
      "Ġad": 367,
      "Ġ{": 368,
      "Ġint": 369,
      "Ġqu": 370,
      "Ġme": 371,
      "Ġ+": 372,
      "ire": 373,
      "ome": 374,
      "Ġpl": 375,
      "ap": 376,
      "Ġwhich": 377,
      "ous": 378,
      "Ġab": 379,
      "//": 380,
      "ass": 381,
      "ign": 382,
      ");": 383,
      "ĠU": 384,
      "Ġwere": 385,
      "Ġj": 386,
      "ind": 387,
      "out": 388,
      "ition": 389,
      "ast": 390,
      "ak": 391,
      "ip": 392,
      "cc": 393,
      "ide": 394,
      "du": 395,
      "=\"": 396,
      "----------------": 397,
      "_{": 398,
      "av": 399,
      "ĠJ": 400,
      "ok": 401,
      "ens": 402,
      "ĠIn": 403,
      "The": 404,
      "ub": 405,
      "Ġdis": 406,
      "ord": 407,
      "}}": 408,
      "ile": 409,
      "int": 410,
      "Ġdo": 411,
      "Ġ4": 412,
      "ary": 413,
      "ru": 414,
      "ence": 415,
      "ong": 416,
      "one": 417,
      "ations": 418,
      "ress": 419,
      "ata": 420,
      "),": 421,
      "ose": 422,
      "ty": 423,
      "Ġar": 424,
      "ime": 425,
      "ice": 426,
      "Ġper": 427,
      "Ġhis": 428,
      "con": 429,
      "ĠTh": 430,
      "Ġhas": 431,
      "ia": 432,
      "ents": 433,
      "ory": 434,
      "xt": 435,
      "IC": 436,
      "ace": 437,
      "ma": 438,
      "Ġpre": 439,
      "so": 440,
      "Ġbut": 441,
      "ions": 442,
      "Ġ5": 443,
      "ance": 444,
      "ĠK": 445,
      "Ġone": 446,
      "form": 447,
      "ep": 448,
      "ork": 449,
      "ber": 450,
      "ang": 451,
      "Ġapp": 452,
      "ach": 453,
      "gh": 454,
      "Ġwill": 455,
      "Ġif": 456,
      "iff": 457,
      "ĠV": 458,
      "EP": 459,
      "au": 460,
      "ys": 461,
      "ors": 462,
      "ely": 463,
      "com": 464,
      "Ġ$\\": 465,
      "Ġev": 466,
      "Ġso": 467,
      "port": 468,
      "ref": 469,
      "ally": 470,
      "math": 471,
      "Ġob": 472,
      "own": 473,
      "EPIC": 474,
      "Ġtheir": 475,
      "Ġout": 476,
      "Ġother": 477,
      "reat": 478,
      "Ġpart": 479,
      "ject": 480,
      "ft": 481,
      "ite": 482,
      "ific": 483,
      "Ġla": 484,
      "vel": 485,
      "ook": 486,
      "ry": 487,
      "Ġgo": 488,
      "Ġup": 489,
      "lic": 490,
      "Ġman": 491,
      "....": 492,
      "Ġno": 493,
      "ear": 494,
      "cre": 495,
      "urn": 496,
      "ef": 497,
      "ound": 498,
      "rib": 499,
      "Ġalso": 500,
      "ne": 501,
      "Ġ'": 502,
      "low": 503,
      "Ġdes": 504,
      "}$": 505,
      "Ġli": 506,
      "Ġthey": 507,
      "ll": 508,
      "ree": 509,
      "ple": 510,
      "Ġmore": 511,
      "Ġag": 512,
      "\\]": 513,
      "erv": 514,
      "11": 515,
      "Ġspe": 516,
      "[@": 517,
      "ount": 518,
      "ces": 519,
      "very": 520,
      "ail": 521,
      "Ġsp": 522,
      "Ġits": 523,
      "erm": 524,
      "ĠSt": 525,
      "Ġ19": 526,
      "Ġbeen": 527,
      "Ġyour": 528,
      "we": 529,
      "Ġgen": 530,
      "ring": 531,
      "ates": 532,
      "ish": 533,
      "Ġthere": 534,
      "Ġsy": 535,
      "lect": 536,
      "Ġsc": 537,
      "ari": 538,
      "nder": 539,
      "row": 540,
      "eth": 541,
      "Ġmod": 542,
      "ake": 543,
      "Ġind": 544,
      "Ġhad": 545,
      "lo": 546,
      "Ġdiff": 547,
      "Ġwho": 548,
      "Ġam": 549,
      "Ġany": 550,
      "Ġ6": 551,
      "Ġass": 552,
      "ric": 553,
      "Ġwhen": 554,
      "^{": 555,
      "Ġte": 556,
      "ied": 557,
      "Ġmy": 558,
      "ild": 559,
      "Ġval": 560,
      "Ġsub": 561,
      "old": 562,
      "10": 563,
      "Ġ}": 564,
      "Ġinter": 565,
      "ER": 566,
      "vers": 567,
      "Ġtime": 568,
      "Ġ&": 569,
      "wo": 570,
      "Ġbet": 571,
      "clud": 572,
      "19": 573,
      "ons": 574,
      "hat": 575,
      "Ġact": 576,
      "12": 577,
      "ps": 578,
      "Ġwould": 579,
      "Ġmay": 580,
      "Ġacc": 581,
      "pro": 582,
      "ode": 583,
      "ater": 584,
      "Ġcons": 585,
      "ient": 586,
      "Ġ.": 587,
      "ĠY": 588,
      "fter": 589,
      "ced": 590,
      "Ġdef": 591,
      "Ġthan": 592,
      "ays": 593,
      "Ġsa": 594,
      "irst": 595,
      "Ġreg": 596,
      "Ġsome": 597,
      "ex": 598,
      "Ġrel": 599,
      "Ġform": 600,
      "ular": 601,
      "EB": 602,
      "Ġro": 603,
      "ert": 604,
      "ks": 605,
      "Ġpos": 606,
      "In": 607,
      "ual": 608,
      "Ġsuch": 609,
      "ove": 610,
      "ont": 611,
      "ov": 612,
      "Ġhig": 613,
      "ings": 614,
      "}\\": 615,
      "unction": 616,
      "Ġover": 617,
      "iss": 618,
      "Ġfe": 619,
      "Ġrec": 620,
      "get": 621,
      "Ġwork": 622,
      "Ġtrans": 623,
      "========": 624,
      "ative": 625,
      "Ġ\\[": 626,
      "ĠIt": 627,
      "hed": 628,
      "red": 629,
      "Ġel": 630,
      "Ġnew": 631,
      "Ġkn": 632,
      "ec": 633,
      "WEB": 634,
      "Ġ7": 635,
      "Ġadd": 636,
      "Ġunder": 637,
      "){": 638,
      "ĠThis": 639,
      "Ġpr": 640,
      "stem": 641,
      "Ġthen": 642,
      "pect": 643,
      "Ġtwo": 644,
      "Ġinto": 645,
      "Ġabout": 646,
      "Ġcomm": 647,
      "Ġpar": 648,
      "Ġthese": 649,
      "Ġstud": 650,
      "__": 651,
      "Ġthem": 652,
      "cess": 653,
      "</": 654,
      "Ġret": 655,
      "Ġuse": 656,
      "ond": 657,
      "ased": 658,
      "Ġdet": 659,
      "Ġph": 660,
      "Ġonly": 661,
      "Ġher": 662,
      "Ġatt": 663,
      "Ġeff": 664,
      "elf": 665,
      "Ġdiffere": 666,
      "Ġ9": 667,
      "the": 668,
      "gr": 669,
      "Ġem": 670,
      "Ġset": 671,
      "Ġlike": 672,
      "Ġoff": 673,
      "Ġ8": 674,
      "Ġinv": 675,
      "lement": 676,
      "ause": 677,
      "type": 678,
      "](": 679,
      "iew": 680,
      "ating": 681,
      "Ġcol": 682,
      "Ġpres": 683,
      "Ġbec": 684,
      "itt": 685,
      "Ġprov": 686,
      "Ġexp": 687,
      "oth": 688,
      "ection": 689,
      "ob": 690,
      "##": 691,
      "Ġcell": 692,
      "Ġsign": 693,
      "Ġresult": 694,
      "ween": 695,
      "Ġfirst": 696,
      "\",": 697,
      "Ġour": 698,
      "Ġpat": 699,
      "fig": 700,
      "Ġco": 701,
      "ink": 702,
      "Ġ10": 703,
      "ick": 704,
      "olog": 705,
      "oint": 706,
      "fr": 707,
      "ption": 708,
      "ollow": 709,
      "ility": 710,
      ".,": 711,
      "Ġi": 712,
      "ark": 713,
      "ade": 714,
      "Ġwhere": 715,
      "Ġbetween": 716,
      "eg": 717,
      "Ġget": 718,
      "ĠCh": 719,
      "Ġused": 720,
      "ise": 721,
      "les": 722,
      "Ġdata": 723,
      "ck": 724,
      "ution": 725,
      "ss": 726,
      "Ġspec": 727,
      "ious": 728,
      "'t": 729,
      "ian": 730,
      "ock": 731,
      "ered": 732,
      "Ġnum": 733,
      "Ġque": 734,
      "Ġwhat": 735,
      "Ġhow": 736,
      "Ġ[@": 737,
      "enc": 738,
      "ype": 739,
      "ize": 740,
      "ĠWe": 741,
      "ible": 742,
      "13": 743,
      "iel": 744,
      "ix": 745,
      "right": 746,
      "Ġac": 747,
      "20": 748,
      "Ġshould": 749,
      "io": 750,
      "Ġusing": 751,
      "Ġhim": 752,
      "ruct": 753,
      "Ġpe": 754,
      "Ġafter": 755,
      "Ġfollow": 756,
      "Ġrem": 757,
      "tern": 758,
      "ange": 759,
      "als": 760,
      "Ġinclud": 761,
      "up": 762,
      "Ġfunction": 763,
      "Ġyear": 764,
      "Ġdist": 765,
      "ict": 766,
      "err": 767,
      "Ġest": 768,
      "hen": 769,
      "ures": 770,
      "ful": 771,
      "\"}": 772,
      "Ġbl": 773,
      "Ġshow": 774,
      "Ġsim": 775,
      "ues": 776,
      "tr": 777,
      "Ġcor": 778,
      "der": 779,
      "its": 780,
      "15": 781,
      "Ġsystem": 782,
      "ever": 783,
      ")$": 784,
      "Ġgrou": 785,
      "000": 786,
      "Ġ201": 787,
      "Ġneed": 788,
      "Ġsupp": 789,
      "ourt": 790,
      "ined": 791,
      "Ġrequ": 792,
      "Ġsaid": 793,
      "Ġprob": 794,
      "Ġgener": 795,
      "Ġent": 796,
      "oy": 797,
      "Ġclass": 798,
      "Ġpol": 799,
      "ough": 800,
      "cal": 801,
      "put": 802,
      "eng": 803,
      "ident": 804,
      "ins": 805,
      "Ġfact": 806,
      ".\"": 807,
      "ateg": 808,
      "://": 809,
      "ww": 810,
      "ms": 811,
      "Ġcould": 812,
      "St": 813,
      "ract": 814,
      "Ġinst": 815,
      "rough": 816,
      "rit": 817,
      "Ġprodu": 818,
      "ield": 819,
      "Ġsur": 820,
      "pos": 821,
      "hes": 822,
      "Ġhigh": 823,
      "Ġeach": 824,
      "Ġvari": 825,
      "ĠHe": 826,
      "inal": 827,
      "Ġend": 828,
      "ning": 829,
      "14": 830,
      "()": 831,
      "(\\": 832,
      "ren": 833,
      "ta": 834,
      "--------------------------------": 835,
      "ics": 836,
      "Ġinf": 837,
      "Ġconst": 838,
      "_{\\": 839,
      "Ġchar": 840,
      "ited": 841,
      "Ġes": 842,
      "ull": 843,
      "to": 844,
      "ax": 845,
      "ĠUn": 846,
      "sp": 847,
      "Ġdifferent": 848,
      "ute": 849,
      "16": 850,
      "]{": 851,
      "Ġgr": 852,
      "Ġcar": 853,
      "ev": 854,
      "Ġjust": 855,
      "ities": 856,
      "har": 857,
      "Ġshe": 858,
      "uring": 859,
      "Ġwell": 860,
      "Ġref": 861,
      "Ġreturn": 862,
      "Ġsm": 863,
      "ants": 864,
      "of": 865,
      "ator": 866,
      "ments": 867,
      "ug": 868,
      "Ġeffect": 869,
      "ox": 870,
      "ower": 871,
      "ized": 872,
      "led": 873,
      "Ġthose": 874,
      "other": 875,
      "](#": 876,
      "ethod": 877,
      "text": 878,
      "frac": 879,
      "Ġthrough": 880,
      "Ġdi": 881,
      "wn": 882,
      "],": 883,
      "Ġap": 884,
      "ym": 885,
      "Ġext": 886,
      "sh": 887,
      "ublic": 888,
      "li": 889,
      "Ġknow": 890,
      "Ġmost": 891,
      "yp": 892,
      "US": 893,
      "ĠAnd": 894,
      "uch": 895,
      "Ġsee": 896,
      "cept": 897,
      "ample": 898,
      "........": 899,
      "und": 900,
      "Ġcur": 901,
      "ically": 902,
      "rm": 903,
      "imes": 904,
      "Ġser": 905,
      "Ġanal": 906,
      "Ġpers": 907,
      "par": 908,
      "sc": 909,
      "Ġgreat": 910,
      "Ġcase": 911,
      "uc": 912,
      "val": 913,
      "18": 914,
      "Ġ:": 915,
      "ature": 916,
      "cond": 917,
      "rol": 918,
      "ood": 919,
      "))": 920,
      "Ġfl": 921,
      "nce": 922,
      "man": 923,
      "Ġincre": 924,
      "IN": 925,
      "ople": 926,
      "17": 927,
      "22": 928,
      "><": 929,
      "ases": 930,
      "tt": 931,
      "ON": 932,
      "ients": 933,
      "...": 934,
      "Ġtest": 935,
      "erg": 936,
      "Ġmodel": 937,
      "Ġvalue": 938,
      "arch": 939,
      "Ġaut": 940,
      "Ġsol": 941,
      "ward": 942,
      "Ġke": 943,
      "]\\]": 944,
      "rent": 945,
      "Ġsame": 946,
      "Ġboth": 947,
      "->": 948,
      "aint": 949,
      "Ġ200": 950,
      "pr": 951,
      "amb": 952,
      "ument": 953,
      "}{": 954,
      "Ġmon": 955,
      "Ġstate": 956,
      "vent": 957,
      "Ġdid": 958,
      "Ġdoes": 959,
      "let": 960,
      "Ġnumber": 961,
      "set": 962,
      "$\\": 963,
      "Th": 964,
      "ages": 965,
      "ines": 966,
      "Ġbecause": 967,
      "Ġloc": 968,
      "ĠQ": 969,
      ",\\": 970,
      "Ġpartic": 971,
      "Ġ|": 972,
      "velop": 973,
      "25": 974,
      "Ġagain": 975,
      "]{}": 976,
      "SS": 977,
      "Ġfil": 978,
      "Ġmin": 979,
      "Ġresp": 980,
      "Ġcall": 981,
      "read": 982,
      "ĠLet": 983,
      "Ġappro": 984,
      "Ġmat": 985,
      "round": 986,
      "AI": 987,
      "****": 988,
      "ily": 989,
      "oci": 990,
      "Ġmed": 991,
      "30": 992,
      "Ġback": 993,
      "ng": 994,
      "ving": 995,
      "Ġeven": 996,
      "ĠIf": 997,
      "ained": 998,
      "ified": 999,
      "Ġz": 1000,
      "Ġbu": 1001,
      "anc": 1002,
      "irect": 1003,
      "ince": 1004,
      "Ġrep": 1005,
      "Ġ@": 1006,
      "Ġ\\[[@": 1007,
      "Ġright": 1008,
      "Ġlong": 1009,
      "Ġexper": 1010,
      "Ġevery": 1011,
      "Ġdel": 1012,
      "Ġmethod": 1013,
      "Ġfind": 1014,
      "ron": 1015,
      "Ġpresent": 1016,
      "32": 1017,
      "Ġwor": 1018,
      "ier": 1019,
      "Ġmany": 1020,
      "Ġpoint": 1021,
      "ife": 1022,
      "Ġgiv": 1023,
      "CR": 1024,
      "cul": 1025,
      "ool": 1026,
      "ared": 1027,
      "ved": 1028,
      "ĠFor": 1029,
      "arg": 1030,
      "ational": 1031,
      "mathb": 1032,
      "Ġprocess": 1033,
      "app": 1034,
      "ement": 1035,
      "ategory": 1036,
      "Ġ12": 1037,
      "ĠCom": 1038,
      "fore": 1039,
      "Ġequ": 1040,
      "oid": 1041,
      "Ġtra": 1042,
      "Ġvery": 1043,
      "ness": 1044,
      "left": 1045,
      "eta": 1046,
      "Ġfound": 1047,
      "Ġbeing": 1048,
      "Ġmake": 1049,
      "AT": 1050,
      "air": 1051,
      "50": 1052,
      "Ġ/": 1053,
      "formation": 1054,
      "over": 1055,
      "Ġperform": 1056,
      "ression": 1057,
      "cent": 1058,
      "Ġelement": 1059,
      "Ġdep": 1060,
      "Ġx": 1061,
      "Ġche": 1062,
      "ret": 1063,
      "ah": 1064,
      "mer": 1065,
      "igned": 1066,
      "Ġop": 1067,
      "Ġpeople": 1068,
      "Ġposs": 1069,
      "ively": 1070,
      "ee": 1071,
      "Ġ//": 1072,
      "ody": 1073,
      "Ġway": 1074,
      "ew": 1075,
      "Ġmem": 1076,
      "Ġstudy": 1077,
      "ired": 1078,
      "Ġname": 1079,
      "upp": 1080,
      "yl": 1081,
      "ĠAs": 1082,
      "Ġcells": 1083,
      "Ġtri": 1084,
      "Ġet": 1085,
      "Ġdec": 1086,
      "$,": 1087,
      "Ġdevelop": 1088,
      "line": 1089,
      "Ġart": 1090,
      "$.": 1091,
      "aj": 1092,
      "ued": 1093,
      "200": 1094,
      "201": 1095,
      "atic": 1096,
      "att": 1097,
      "Ġwhile": 1098,
      "Ġdisc": 1099,
      "ript": 1100,
      "Ġnow": 1101,
      "rt": 1102,
      "',": 1103,
      "Ġwithout": 1104,
      "ĠAl": 1105,
      "AR": 1106,
      "ices": 1107,
      "Ġimport": 1108,
      "Ġterm": 1109,
      "Ġcourt": 1110,
      "Ġbel": 1111,
      "Ġlevel": 1112,
      "Ġbefore": 1113,
      "Ġlos": 1114,
      "ĠHow": 1115,
      "ism": 1116,
      "Ġhand": 1117,
      "NA": 1118,
      "Ġdesc": 1119,
      "40": 1120,
      "\">": 1121,
      "Ġcre": 1122,
      "pha": 1123,
      "ave": 1124,
      "ization": 1125,
      "Ġconsid": 1126,
      "Ġyears": 1127,
      "ale": 1128,
      "Ġant": 1129,
      "acter": 1130,
      "Ġserv": 1131,
      "ray": 1132,
      "Ġins": 1133,
      "Ġhere": 1134,
      "alth": 1135,
      "ĠPro": 1136,
      "Ġorder": 1137,
      "Ġhel": 1138,
      "way": 1139,
      "Ġlook": 1140,
      "ars": 1141,
      "not": 1142,
      "ason": 1143,
      "Ġplay": 1144,
      "gram": 1145,
      "dition": 1146,
      "min": 1147,
      "ense": 1148,
      "Ġfr": 1149,
      "Ġnon": 1150,
      "ality": 1151,
      "Ġread": 1152,
      "Ġmade": 1153,
      "ĠAn": 1154,
      "ole": 1155,
      "ST": 1156,
      "Ġthou": 1157,
      "USER": 1158,
      "aking": 1159,
      "gan": 1160,
      "Ġgu": 1161,
      "Ġra": 1162,
      "abel": 1163,
      "Ġgood": 1164,
      "ner": 1165,
      "Ġdown": 1166,
      "ght": 1167,
      "raph": 1168,
      "ting": 1169,
      "ank": 1170,
      "Ġsecond": 1171,
      "0000": 1172,
      "Ġthree": 1173,
      "Ġerr": 1174,
      "\":": 1175,
      "Ġpatients": 1176,
      "Ġwant": 1177,
      "med": 1178,
      "Ġprovid": 1179,
      "Ġown": 1180,
      "ven": 1181,
      "Ġproper": 1182,
      "Ġsignific": 1183,
      "ision": 1184,
      "Ġactiv": 1185,
      "Ġsupport": 1186,
      "work": 1187,
      "ify": 1188,
      "Ġstr": 1189,
      "Ġline": 1190,
      "ential": 1191,
      "Ġtype": 1192,
      "Ġoper": 1193,
      "::": 1194,
      "da": 1195,
      "02": 1196,
      "Ġ18": 1197,
      "br": 1198,
      "Ġav": 1199,
      "gg": 1200,
      "Category": 1201,
      "ctions": 1202,
      "Ġear": 1203,
      "Ġperson": 1204,
      "Ġduring": 1205,
      "Ġmust": 1206,
      "irc": 1207,
      "ource": 1208,
      "name": 1209,
      "ivid": 1210,
      "Ġdev": 1211,
      "Ġobject": 1212,
      "Ġmet": 1213,
      "ML": 1214,
      "(-": 1215,
      "serv": 1216,
      "34": 1217,
      "---": 1218,
      "ually": 1219,
      "Ġmuch": 1220,
      "Ġmight": 1221,
      "Ġcontrol": 1222,
      "cer": 1223,
      "ency": 1224,
      "Fig": 1225,
      "alpha": 1226,
      "mon": 1227,
      "ulation": 1228,
      "Ġlist": 1229,
      "any": 1230,
      "(\"": 1231,
      "ĠX": 1232,
      "Ġlo": 1233,
      "ability": 1234,
      "Ġstart": 1235,
      "less": 1236,
      "uss": 1237,
      "24": 1238,
      "chn": 1239,
      "mathcal": 1240,
      "me": 1241,
      "ns": 1242,
      "Ġsl": 1243,
      "ather": 1244,
      "Ġexpl": 1245,
      "agn": 1246,
      "}(": 1247,
      "mb": 1248,
      "harata": 1249,
      "view": 1250,
      "Ġelect": 1251,
      "Ġproble": 1252,
      "vious": 1253,
      "ysis": 1254,
      "ots": 1255,
      "OR": 1256,
      "ener": 1257,
      "Ġfollowing": 1258,
      "ead": 1259,
      "str": 1260,
      "Ġconf": 1261,
      "Ġca": 1262,
      "Ġmeas": 1263,
      "amp": 1264,
      "Ġpur": 1265,
      "Ġsmall": 1266,
      "33": 1267,
      "Ġgroup": 1268,
      "use": 1269,
      "ional": 1270,
      "Ġpublic": 1271,
      "ane": 1272,
      "Ġpri": 1273,
      "ĠPar": 1274,
      "Ġappe": 1275,
      "Ġmult": 1276,
      "itive": 1277,
      "ash": 1278,
      "^{\\": 1279,
      "Ġson": 1280,
      "Ġreport": 1281,
      "Ġaff": 1282,
      ")\\": 1283,
      "IT": 1284,
      "64": 1285,
      "Ġinformation": 1286,
      "80": 1287,
      "Ġcount": 1288,
      "Ġresults": 1289,
      "ected": 1290,
      "ished": 1291,
      "Ġfile": 1292,
      "Ġ20": 1293,
      "ton": 1294,
      "99": 1295,
      "idence": 1296,
      "arge": 1297,
      "Ġhelp": 1298,
      "ains": 1299,
      "Ġdeterm": 1300,
      "ior": 1301,
      "Ġident": 1302,
      "Ġlim": 1303,
      "Ġsignificant": 1304,
      "Ġstruct": 1305,
      "Ġhum": 1306,
      "Ġtem": 1307,
      "Ġrun": 1308,
      "].": 1309,
      "urther": 1310,
      "que": 1311,
      "pec": 1312,
      "duct": 1313,
      "Ġ15": 1314,
      "ann": 1315,
      "ĠInd": 1316,
      "ext": 1317,
      "Ġdirect": 1318,
      "aterial": 1319,
      "ters": 1320,
      "rict": 1321,
      "35": 1322,
      "Ġwr": 1323,
      "ists": 1324,
      "ination": 1325,
      "for": 1326,
      "ames": 1327,
      "ention": 1328,
      "ocument": 1329,
      "Ex": 1330,
      "Ġobt": 1331,
      "Let": 1332,
      "Ġexample": 1333,
      "Ġcurrent": 1334,
      "27": 1335,
      "Ġlead": 1336,
      "Ġ**": 1337,
      "ross": 1338,
      "erest": 1339,
      "Ġed": 1340,
      "Ġuna": 1341,
      "AL": 1342,
      "Ġcal": 1343,
      "Ġlet": 1344,
      "ho": 1345,
      "az": 1346,
      "ger": 1347,
      "Ġstand": 1348,
      "lear": 1349,
      "Ġcontin": 1350,
      "ural": 1351,
      "Ġgiven": 1352,
      "resent": 1353,
      "yn": 1354,
      "Ġinc": 1355,
      "def": 1356,
      "lex": 1357,
      "ology": 1358,
      "Ġthink": 1359,
      "Ġtreat": 1360,
      "Ġprogram": 1361,
      "ote": 1362,
      "60": 1363,
      "Ġprot": 1364,
      "Ġredu": 1365,
      "Ġwithin": 1366,
      "Ġrespect": 1367,
      "Ġbeh": 1368,
      "Ġquest": 1369,
      "miss": 1370,
      "face": 1371,
      "Ġcent": 1372,
      "Ġworld": 1373,
      "]\\].": 1374,
      "Ġchild": 1375,
      "Ġcondition": 1376,
      "What": 1377,
      "ience": 1378,
      "Ġpost": 1379,
      "Ġallow": 1380,
      "land": 1381,
      "self": 1382,
      "Ġ{#": 1383,
      "ords": 1384,
      "ium": 1385,
      "ĠYou": 1386,
      "abharata": 1387,
      "de": 1388,
      "ilar": 1389,
      "amet": 1390,
      "hip": 1391,
      "be": 1392,
      "Ġstat": 1393,
      "Ġaddition": 1394,
      "Ġ_": 1395,
      "ambda": 1396,
      "aim": 1397,
      "Ġimp": 1398,
      "ral": 1399,
      "Ġfield": 1400,
      "ived": 1401,
      "II": 1402,
      "ams": 1403,
      "Ġprote": 1404,
      "ribut": 1405,
      "ule": 1406,
      "ouse": 1407,
      "Ġunt": 1408,
      "TML": 1409,
      "05": 1410,
      "Ġday": 1411,
      "ik": 1412,
      "Ġiss": 1413,
      "AN": 1414,
      "Ġobserv": 1415,
      "ither": 1416,
      "28": 1417,
      "book": 1418,
      "oot": 1419,
      "yt": 1420,
      "ording": 1421,
      "day": 1422,
      "Ġreal": 1423,
      "Ġ14": 1424,
      "Ġcou": 1425,
      "Ġlife": 1426,
      "ĠHowever": 1427,
      "ury": 1428,
      "Ġocc": 1429,
      "Ġpower": 1430,
      "ana": 1431,
      "Ġstill": 1432,
      "orn": 1433,
      "It": 1434,
      "reg": 1435,
      "Ġ$$\\": 1436,
      "CT": 1437,
      "Ġve": 1438,
      "ately": 1439,
      "Ġsay": 1440,
      "ves": 1441,
      "Ġimportant": 1442,
      "ES": 1443,
      "Ġindic": 1444,
      "Ġsom": 1445,
      "Ġpass": 1446,
      "26": 1447,
      "ration": 1448,
      "================": 1449,
      "oh": 1450,
      "Ġrest": 1451,
      "ured": 1452,
      "ĠZ": 1453,
      "Ġapplic": 1454,
      "Ġfin": 1455,
      "va": 1456,
      "Ġcorre": 1457,
      "lish": 1458,
      "Ġsing": 1459,
      "aining": 1460,
      "37": 1461,
      "We": 1462,
      "Ġtake": 1463,
      "htt": 1464,
      "Ġassoci": 1465,
      "uro": 1466,
      "ength": 1467,
      "ways": 1468,
      "ets": 1469,
      "Ġpara": 1470,
      "Ġagainst": 1471,
      "sec": 1472,
      "Ġcap": 1473,
      "ĠWhat": 1474,
      "ently": 1475,
      "Ġrece": 1476,
      "Ġlast": 1477,
      "Ġ,": 1478,
      "refore": 1479,
      "04": 1480,
      "36": 1481,
      "Ġhaving": 1482,
      "Ġbre": 1483,
      "atch": 1484,
      "Pro": 1485,
      "ital": 1486,
      "ends": 1487,
      "29": 1488,
      "____": 1489,
      "ĠAd": 1490,
      "onse": 1491,
      "Ġbas": 1492,
      "Ġking": 1493,
      "Ġpot": 1494,
      "Ġfam": 1495,
      "ergy": 1496,
      "Ġanother": 1497,
      "elta": 1498,
      "ml": 1499,
      "icro": 1500,
      "Ġmot": 1501,
      "lu": 1502,
      "Ġbest": 1503,
      "Ġchang": 1504,
      "ĠSe": 1505,
      "inf": 1506,
      "ĠBut": 1507,
      "Ġtechn": 1508,
      "akes": 1509,
      "Ġbased": 1510,
      "ĠNo": 1511,
      "inc": 1512,
      "ĠAr": 1513,
      "plic": 1514,
      "ially": 1515,
      "ivers": 1516,
      "38": 1517,
      "aw": 1518,
      "Ġder": 1519,
      "Ġopt": 1520,
      "Ġ16": 1521,
      "ED": 1522,
      "Ġpop": 1523,
      "ien": 1524,
      "$$": 1525,
      "roll": 1526,
      "Ġlow": 1527,
      "Ġanalysis": 1528,
      "oly": 1529,
      "Ġtyp": 1530,
      "ĠDe": 1531,
      "();": 1532,
      "stand": 1533,
      "Ġcharacter": 1534,
      ")}": 1535,
      "Ġincluding": 1536,
      "amma": 1537,
      "load": 1538,
      "This": 1539,
      "ining": 1540,
      "ploy": 1541,
      "AS": 1542,
      "Ġcare": 1543,
      "39": 1544,
      "Ġcode": 1545,
      "Ġhead": 1546,
      "Ġrele": 1547,
      "Ġdescrib": 1548,
      "ackage": 1549,
      "arget": 1550,
      "Ġvis": 1551,
      "ples": 1552,
      "Ġmark": 1553,
      "pone": 1554,
      "Ġmean": 1555,
      "lation": 1556,
      "Ġinterest": 1557,
      "Ġopen": 1558,
      "Ġmen": 1559,
      "here": 1560,
      "Ġlarge": 1561,
      "Ġsince": 1562,
      "ET": 1563,
      "els": 1564,
      "ats": 1565,
      "ffic": 1566,
      "ware": 1567,
      "etic": 1568,
      "ification": 1569,
      "mathbb": 1570,
      "21": 1571,
      "igma": 1572,
      "bers": 1573,
      ")/": 1574,
      "ems": 1575,
      "ird": 1576,
      "Ġarg": 1577,
      "55": 1578,
      "Ġpath": 1579,
      "ĠCl": 1580,
      "arent": 1581,
      "Ġhtt": 1582,
      "Ġadv": 1583,
      "\\[": 1584,
      "na": 1585,
      "string": 1586,
      "iness": 1587,
      "ery": 1588,
      "alk": 1589,
      "Con": 1590,
      "ives": 1591,
      "requ": 1592,
      "mu": 1593,
      "gen": 1594,
      "ope": 1595,
      "####": 1596,
      "Ġconn": 1597,
      "label": 1598,
      "hib": 1599,
      "Ġproduct": 1600,
      "Ġ17": 1601,
      "ts": 1602,
      "Ġ{\\": 1603,
      "44": 1604,
      "erence": 1605,
      "ering": 1606,
      "Ġ*/": 1607,
      ",\"": 1608,
      "Ġsk": 1609,
      "ser": 1610,
      "Ġlight": 1611,
      "Ġparticular": 1612,
      "alse": 1613,
      "Ġ#": 1614,
      "Ġlaw": 1615,
      "Ġself": 1616,
      "ccess": 1617,
      "bl": 1618,
      "ica": 1619,
      "ĠWh": 1620,
      "Ġcommun": 1621,
      "Ġdon": 1622,
      "ertain": 1623,
      "by": 1624,
      "por": 1625,
      "hor": 1626,
      "version": 1627,
      "ado": 1628,
      "ĠNew": 1629,
      "ably": 1630,
      "Ġrepresent": 1631,
      "lection": 1632,
      "=\\": 1633,
      "Ġprof": 1634,
      "pi": 1635,
      "mun": 1636,
      "To": 1637,
      "ĠEx": 1638,
      "ek": 1639,
      "www": 1640,
      "Ġhy": 1641,
      "ault": 1642,
      "part": 1643,
      "ances": 1644,
      "ended": 1645,
      "Ġabove": 1646,
      "ern": 1647,
      "Ġless": 1648,
      "Ġbro": 1649,
      "ott": 1650,
      "('": 1651,
      "Ġ199": 1652,
      "Ġsugg": 1653,
      "Ġbr": 1654,
      "igh": 1655,
      "Ġsuggest": 1656,
      "Ġdue": 1657,
      "vert": 1658,
      "ĠThere": 1659,
      "Ġwar": 1660,
      "add": 1661,
      "Ġinvest": 1662,
      "ava": 1663,
      "Ġknown": 1664,
      "},": 1665,
      "Ġupon": 1666,
      "................": 1667,
      "Ġhist": 1668,
      "ety": 1669,
      "cur": 1670,
      "Ġfore": 1671,
      "epend": 1672,
      "bs": 1673,
      "osed": 1674,
      "23": 1675,
      "ressed": 1676,
      "ĠRe": 1677,
      "ble": 1678,
      "ĠThey": 1679,
      "ask": 1680,
      "ina": 1681,
      "And": 1682,
      "fer": 1683,
      "Ġtop": 1684,
      "Ġgl": 1685,
      "Ġ</": 1686,
      "Ġimpro": 1687,
      "HTML": 1688,
      "phi": 1689,
      "iod": 1690,
      "AC": 1691,
      ".-": 1692,
      "ormal": 1693,
      "Ġsimilar": 1694,
      "Ġhealth": 1695,
      "opy": 1696,
      "Ġtry": 1697,
      "RE": 1698,
      "ĠTr": 1699,
      "100": 1700,
      "Ġfour": 1701,
      "Ġproblem": 1702,
      "ĠSection": 1703,
      "Ġcalled": 1704,
      "Ġfail": 1705,
      "cont": 1706,
      "}_": 1707,
      "Ġnever": 1708,
      "egin": 1709,
      "Ġcommon": 1710,
      "dict": 1711,
      "Ġtrue": 1712,
      "ised": 1713,
      "Ġbo": 1714,
      "Ġprovide": 1715,
      "Ġsize": 1716,
      "Ġsit": 1717,
      "ha": 1718,
      "Ġpossible": 1719,
      "Ġclaim": 1720,
      "ID": 1721,
      "Ġhuman": 1722,
      "ung": 1723,
      "Ġrese": 1724,
      "ament": 1725,
      "Ġcr": 1726,
      "Ġbi": 1727,
      "Ġexpression": 1728,
      "77": 1729,
      "ĠCon": 1730,
      "ada": 1731,
      "Ġchange": 1732,
      "verse": 1733,
      "eps": 1734,
      "Ġplace": 1735,
      "Ġwhether": 1736,
      "Ġview": 1737,
      "Ġaround": 1738,
      "Ġinit": 1739,
      "ĠIs": 1740,
      "ĠApp": 1741,
      "Ġenergy": 1742,
      "action": 1743,
      "Ġshown": 1744,
      "Ġinvol": 1745,
      "45": 1746,
      "mat": 1747,
      "vir": 1748,
      "Ġgrow": 1749,
      "ĠSc": 1750,
      "Ġtreatment": 1751,
      "LE": 1752,
      "Ġden": 1753,
      "usion": 1754,
      "nces": 1755,
      "Ġorig": 1756,
      "CSS": 1757,
      "Ġnext": 1758,
      "Ġcomb": 1759,
      "unc": 1760,
      "resp": 1761,
      "}^{": 1762,
      "ĠThese": 1763,
      "play": 1764,
      "acin": 1765,
      "unt": 1766,
      "Ġavail": 1767,
      "Ġvalues": 1768,
      "var": 1769,
      "aligned": 1770,
      "ĠPh": 1771,
      "ĠTo": 1772,
      "imal": 1773,
      "Ġerror": 1774,
      "lambda": 1775,
      "oper": 1776,
      "Ġdri": 1777,
      "used": 1778,
      "Ġposition": 1779,
      "iment": 1780,
      "69": 1781,
      "As": 1782,
      "Ġuser": 1783,
      "aut": 1784,
      "></": 1785,
      "Ġtext": 1786,
      "qrt": 1787,
      "Ġold": 1788,
      "Ġrad": 1789,
      "Ġsever": 1790,
      "chool": 1791,
      "ĠOn": 1792,
      "Ġbus": 1793,
      "Ġexist": 1794,
      "col": 1795,
      "etwork": 1796,
      "Ġspecific": 1797,
      "48": 1798,
      "aces": 1799,
      "Ġindivid": 1800,
      "begin": 1801,
      "Ġinte": 1802,
      ".'": 1803,
      "Ġtre": 1804,
      "Ġlocal": 1805,
      "Ġgeneral": 1806,
      "iple": 1807,
      "Ġamong": 1808,
      "idth": 1809,
      "Ġevidence": 1810,
      "Ġsum": 1811,
      "ceed": 1812,
      "data": 1813,
      "ores": 1814,
      "Ġris": 1815,
      "}_{": 1816,
      "Ġsingle": 1817,
      "ĠPl": 1818,
      "leg": 1819,
      "Ġvol": 1820,
      "Ġcirc": 1821,
      "Ġmeans": 1822,
      "Ġfew": 1823,
      "Ġtot": 1824,
      "ological": 1825,
      "itor": 1826,
      "Ġprevious": 1827,
      "Ġeas": 1828,
      "sum": 1829,
      "Ġ11": 1830,
      "thing": 1831,
      "Ġhapp": 1832,
      "Ġconsider": 1833,
      "HTMLCSS": 1834,
      "erc": 1835,
      "Ġsw": 1836,
      "go": 1837,
      "Ġreason": 1838,
      "}$$": 1839,
      "Ġ30": 1840,
      "Ġsequ": 1841,
      "Ġtoo": 1842,
      "Ġleft": 1843,
      "Ġwater": 1844,
      "ides": 1845,
      "Ġgive": 1846,
      "Ġut": 1847,
      "Ġmonth": 1848,
      "ending": 1849,
      "Ġdays": 1850,
      "Ġalways": 1851,
      "Ġvir": 1852,
      "ling": 1853,
      "Ġprom": 1854,
      "rop": 1855,
      "Ġexpect": 1856,
      "Ġenc": 1857,
      "angle": 1858,
      "sw": 1859,
      "Ġkey": 1860,
      "Ġsuper": 1861,
      "];": 1862,
      "Ġmain": 1863,
      "equ": 1864,
      "'m": 1865,
      "ĠAll": 1866,
      "ene": 1867,
      "75": 1868,
      "Ġpotential": 1869,
      "books": 1870,
      "Cl": 1871,
      "ribute": 1872,
      "Ġmaterial": 1873,
      "Ġhowever": 1874,
      "):": 1875,
      "Ġ--": 1876,
      "most": 1877,
      "eed": 1878,
      "Ġstring": 1879,
      "Ġleg": 1880,
      "ittle": 1881,
      "SC": 1882,
      "Ġsens": 1883,
      "Ġ>": 1884,
      "beta": 1885,
      "Ġlear": 1886,
      "Ġlas": 1887,
      "Ġide": 1888,
      "Ġpa": 1889,
      "Ġfurther": 1890,
      "Ġfree": 1891,
      "ĠSh": 1892,
      "rain": 1893,
      "ething": 1894,
      "Ġproject": 1895,
      "ij": 1896,
      "rap": 1897,
      "********": 1898,
      "Ġthy": 1899,
      "ten": 1900,
      "ĠSo": 1901,
      "70": 1902,
      "ĠAmer": 1903,
      "icle": 1904,
      "Ġbuild": 1905,
      "Ġ13": 1906,
      "Ġindividual": 1907,
      "Ġ!": 1908,
      "omen": 1909,
      "HE": 1910,
      "Ġ==": 1911,
      "dd": 1912,
      "sequ": 1913,
      "Ġphys": 1914,
      "Ġeither": 1915,
      "back": 1916,
      "aring": 1917,
      "65": 1918,
      "ograph": 1919,
      "Com": 1920,
      "org": 1921,
      "aps": 1922,
      "Ġorgan": 1923,
      "Ġprim": 1924,
      "Ġbetter": 1925,
      "mah": 1926,
      "ey": 1927,
      "88": 1928,
      "}^": 1929,
      "Ġselect": 1930,
      "Ġparamet": 1931,
      "Ġperiod": 1932,
      "holy": 1933,
      "indow": 1934,
      "Ġsubject": 1935,
      "Ġcases": 1936,
      "che": 1937,
      "Ġmov": 1938,
      "son": 1939,
      "Ġturn": 1940,
      "Ġquestion": 1941,
      "Ġbody": 1942,
      "holybooks": 1943,
      "acy": 1944,
      "95": 1945,
      "mahabharata": 1946,
      "ler": 1947,
      "mit": 1948,
      "Ġavailable": 1949,
      "-\\": 1950,
      "return": 1951,
      "AP": 1952,
      "sub": 1953,
      ";}": 1954,
      "Ġhigher": 1955,
      "``": 1956,
      "Ġdr": 1957,
      "Ġseveral": 1958,
      "ĠčĊ": 1959,
      "raw": 1960,
      "bar": 1961,
      "Ġ([": 1962,
      "though": 1963,
      "ĠCourt": 1964,
      "table": 1965,
      "ume": 1966,
      "Ġelse": 1967,
      "Ġdise": 1968,
      "Ġstandard": 1969,
      "Ġ25": 1970,
      "ream": 1971,
      "Ġside": 1972,
      "cd": 1973,
      "Ġeng": 1974,
      "For": 1975,
      "Ġunderstand": 1976,
      "LL": 1977,
      "ĠIm": 1978,
      "Ġcontent": 1979,
      "Ġport": 1980,
      "chan": 1981,
      "Ġjud": 1982,
      "Ġassociated": 1983,
      "Ġstudies": 1984,
      "Ġemploy": 1985,
      "ajor": 1986,
      "div": 1987,
      "ĠUnited": 1988,
      "Ġclear": 1989,
      "arm": 1990,
      "angu": 1991,
      "ĠWhen": 1992,
      "67": 1993,
      "Ġ${\\": 1994,
      "amples": 1995,
      "Ġevent": 1996,
      "Ġask": 1997,
      "Ġcreat": 1998,
      "Ġleast": 1999,
      "Ġ100": 2000,
      "AM": 2001,
      "Ġput": 2002,
      "Ġregard": 2003,
      "Ġhttp": 2004,
      "hy": 2005,
      "Ġcomput": 2006,
      "Ġhome": 2007,
      "lob": 2008,
      "Ġabs": 2009,
      "Ġgoing": 2010,
      "package": 2011,
      "ription": 2012,
      "OM": 2013,
      "ustom": 2014,
      "Ġcost": 2015,
      "ĠThen": 2016,
      "ystem": 2017,
      "Ġthus": 2018,
      "ours": 2019,
      "Ġplan": 2020,
      "Ġreview": 2021,
      "Ġ%": 2022,
      "ales": 2023,
      "Ġaccess": 2024,
      "68": 2025,
      "IS": 2026,
      "file": 2027,
      "nal": 2028,
      "Tr": 2029,
      "trans": 2030,
      "ilon": 2031,
      "yle": 2032,
      "ands": 2033,
      "Ġdesign": 2034,
      "Ġ24": 2035,
      "ables": 2036,
      "Ġ)": 2037,
      "Ġpract": 2038,
      "Ġcome": 2039,
      "mission": 2040,
      "Ġoccur": 2041,
      "Ġlay": 2042,
      "Ġtarget": 2043,
      "Name": 2044,
      "Ġreally": 2045,
      "Ġsomething": 2046,
      "uppose": 2047,
      "mathbf": 2048,
      "key": 2049,
      "ĠStates": 2050,
      "Ġmass": 2051,
      "ĠAt": 2052,
      "Ġmus": 2053,
      "Ġlittle": 2054,
      "sigma": 2055,
      "Ġneg": 2056,
      "ivity": 2057,
      "ift": 2058,
      "itted": 2059,
      "Ġbelie": 2060,
      "esc": 2061,
      "ored": 2062,
      "Ġrate": 2063,
      "olution": 2064,
      "Ġlevels": 2065,
      "new": 2066,
      "Ġresponse": 2067,
      "ĠCol": 2068,
      "mod": 2069,
      "roup": 2070,
      "Ġthings": 2071,
      "90": 2072,
      "Ġben": 2073,
      "Ġtotal": 2074,
      "ĠParva": 2075,
      "ĠUS": 2076,
      "nc": 2077,
      "Ġmicro": 2078,
      "Ġgover": 2079,
      "Ġtimes": 2080,
      "iving": 2081,
      "idd": 2082,
      "Id": 2083,
      "Ġaction": 2084,
      "Ġkind": 2085,
      "Ġopp": 2086,
      "Ġrange": 2087,
      "Ġable": 2088,
      "eq": 2089,
      "iting": 2090,
      "ception": 2091,
      "clude": 2092,
      "_\\": 2093,
      "rah": 2094,
      "lished": 2095,
      "31": 2096,
      "ison": 2097,
      "atures": 2098,
      "Ġarea": 2099,
      "bib": 2100,
      "String": 2101,
      "})": 2102,
      "uit": 2103,
      "co": 2104,
      "rr": 2105,
      "AD": 2106,
      "Ġrequire": 2107,
      "^{-": 2108,
      "ga": 2109,
      "Ġfull": 2110,
      "Ġimage": 2111,
      "respond": 2112,
      "sqrt": 2113,
      "ourse": 2114,
      "Ġwords": 2115,
      "viron": 2116,
      "roid": 2117,
      "Ġcertain": 2118,
      "Ġid": 2119,
      "\")": 2120,
      "Ġpo": 2121,
      "uf": 2122,
      "Ġfri": 2123,
      "ĠRes": 2124,
      "omet": 2125,
      "Ġsuccess": 2126,
      "97": 2127,
      "Ġlik": 2128,
      "Ġexc": 2129,
      "Ġcomplex": 2130,
      "Ġsat": 2131,
      "Ġdom": 2132,
      "ribution": 2133,
      "Ġcho": 2134,
      "Type": 2135,
      "Ġaway": 2136,
      "Ġ([@": 2137,
      "ique": 2138,
      "Ġcompared": 2139,
      "Ġtrial": 2140,
      "log": 2141,
      "osis": 2142,
      "ension": 2143,
      "Ġflu": 2144,
      "attle": 2145,
      "]).": 2146,
      "rix": 2147,
      "ĠFr": 2148,
      "Ġcompon": 2149,
      "Ġhard": 2150,
      "Ġsource": 2151,
      "Ġspace": 2152,
      "Ġver": 2153,
      "Ġshort": 2154,
      "ush": 2155,
      "IP": 2156,
      "Ġdevelopment": 2157,
      "aken": 2158,
      "idad": 2159,
      "Ġple": 2160,
      "Ġinclude": 2161,
      "Ġrequired": 2162,
      "Ġsent": 2163,
      "Ġund": 2164,
      "\"}).": 2165,
      "Ġprotein": 2166,
      "Ġnetwork": 2167,
      "85": 2168,
      "eb": 2169,
      "osp": 2170,
      "iation": 2171,
      "Ġcheck": 2172,
      "essage": 2173,
      "Ch": 2174,
      "If": 2175,
      "ember": 2176,
      "aintiff": 2177,
      "Ġperformed": 2178,
      "Ġactivity": 2179,
      "ries": 2180,
      "Ġrepl": 2181,
      "Ġstrong": 2182,
      "ĠThat": 2183,
      "Ġage": 2184,
      "inter": 2185,
      "af": 2186,
      "Ġamount": 2187,
      "wards": 2188,
      "Ġlower": 2189,
      "asing": 2190,
      "itle": 2191,
      "ros": 2192,
      "Ġlog": 2193,
      "Ġobserved": 2194,
      "Res": 2195,
      "AG": 2196,
      "Ġalong": 2197,
      "Ġcalcul": 2198,
      "alu": 2199,
      "ready": 2200,
      "ival": 2201,
      "Ġdiscuss": 2202,
      "Ġterms": 2203,
      "Ġmechan": 2204,
      "atter": 2205,
      "class": 2206,
      "ibility": 2207,
      "ogn": 2208,
      "47": 2209,
      "Ġshall": 2210,
      "MD": 2211,
      "Ġcrit": 2212,
      "ici": 2213,
      "Ġrecord": 2214,
      "Ġalg": 2215,
      "Ġgroups": 2216,
      "gamma": 2217,
      "Ġlater": 2218,
      "ape": 2219,
      "Ġobtained": 2220,
      "Ġconditions": 2221,
      "Ġmeasure": 2222,
      "usepackage": 2223,
      "OT": 2224,
      "03": 2225,
      "{{\\": 2226,
      "lood": 2227,
      "Ġfrequ": 2228,
      "uff": 2229,
      "Ġphot": 2230,
      "Ġsepar": 2231,
      "Ġtemper": 2232,
      "CC": 2233,
      "Ġnecess": 2234,
      "rodu": 2235,
      "Ġfactors": 2236,
      "ION": 2237,
      "ero": 2238,
      "ators": 2239,
      "Ġgame": 2240,
      "Ġoften": 2241,
      "ican": 2242,
      "Ġhold": 2243,
      "Ġeffects": 2244,
      "arc": 2245,
      "Ġquant": 2246,
      "ĠCal": 2247,
      "Ġ`": 2248,
      "Ġchanges": 2249,
      "pri": 2250,
      "verage": 2251,
      "ties": 2252,
      "ilde": 2253,
      "wh": 2254,
      "Ġuntil": 2255,
      "66": 2256,
      "ocial": 2257,
      "Ġfamily": 2258,
      "ĠSp": 2259,
      "Ġfinal": 2260,
      "value": 2261,
      "Al": 2262,
      "IG": 2263,
      "49": 2264,
      "opt": 2265,
      "Ġpor": 2266,
      "Ġcorrespond": 2267,
      "Ġdetail": 2268,
      ")(": 2269,
      "Ġchildren": 2270,
      "Ġdescribed": 2271,
      "Ġmajor": 2272,
      "Ġconduct": 2273,
      "Ġinvestig": 2274,
      "arrow": 2275,
      "Ġdou": 2276,
      "cript": 2277,
      "08": 2278,
      "hold": 2279,
      "Ġsection": 2280,
      "Ġflow": 2281,
      "Ġcreate": 2282,
      "ĠPr": 2283,
      "bre": 2284,
      "Ġincreased": 2285,
      "empt": 2286,
      "Ġdefend": 2287,
      "Ġsignal": 2288,
      "Ġstructure": 2289,
      "Ġdat": 2290,
      "oo": 2291,
      "Ġlarg": 2292,
      "Ġbook": 2293,
      "Ġgovern": 2294,
      "Ġmagn": 2295,
      "Ġvarious": 2296,
      "mm": 2297,
      "aster": 2298,
      "Ġthee": 2299,
      "iversity": 2300,
      "Ġcannot": 2301,
      "Ġsystems": 2302,
      "Ġsure": 2303,
      "Ġey": 2304,
      "this": 2305,
      "Ġestim": 2306,
      "pped": 2307,
      "ules": 2308,
      "arri": 2309,
      "Ġvi": 2310,
      "ney": 2311,
      "itud": 2312,
      "const": 2313,
      "mathrm": 2314,
      "Ġlib": 2315,
      "Ġestab": 2316,
      "ruction": 2317,
      "Ġdocument": 2318,
      "Ġprovided": 2319,
      "plement": 2320,
      "Ġsurface": 2321,
      "Ġdone": 2322,
      "Ġmanag": 2323,
      "Ġmultiple": 2324,
      "eral": 2325,
      "bo": 2326,
      "Ġpriv": 2327,
      "Ġnear": 2328,
      "rug": 2329,
      "ternal": 2330,
      "Ġrisk": 2331,
      "SE": 2332,
      "Val": 2333,
      "asa": 2334,
      "Ġincrease": 2335,
      "ĠShe": 2336,
      "----------------------------------------------------------------": 2337,
      ".[": 2338,
      "Ġinput": 2339,
      "Ġpress": 2340,
      "ources": 2341,
      "Ġrequest": 2342,
      "Ġbusiness": 2343,
      "Ġbecome": 2344,
      "ĠCo": 2345,
      "ires": 2346,
      "atory": 2347,
      "ids": 2348,
      ")*": 2349,
      "An": 2350,
      "rows": 2351,
      "anguage": 2352,
      "Ġdecre": 2353,
      "Ġsou": 2354,
      "Ġbehav": 2355,
      "aced": 2356,
      "ĠState": 2357,
      "http": 2358,
      "++": 2359,
      "Ġreported": 2360,
      "Ġcult": 2361,
      "lete": 2362,
      "Ġpay": 2363,
      "87": 2364,
      "~~": 2365,
      "Ġbig": 2366,
      "07": 2367,
      "alf": 2368,
      "Ġmor": 2369,
      "Ġsoft": 2370,
      "Ġ(*": 2371,
      "dom": 2372,
      "Ġdest": 2373,
      "57": 2374,
      "Ġnormal": 2375,
      "ising": 2376,
      "ensity": 2377,
      "Ġsubst": 2378,
      "Ġalready": 2379,
      "ones": 2380,
      "Ġair": 2381,
      "Ġaccount": 2382,
      "rho": 2383,
      "}{\\": 2384,
      "vironment": 2385,
      "umber": 2386,
      "xim": 2387,
      "ground": 2388,
      "ĠBe": 2389,
      "89": 2390,
      "cle": 2391,
      "AB": 2392,
      "Ġseen": 2393,
      "001": 2394,
      "orth": 2395,
      "cular": 2396,
      "+\\": 2397,
      "ependent": 2398,
      "09": 2399,
      "ĠSee": 2400,
      "la": 2401,
      "ixed": 2402,
      "Ġfactor": 2403,
      "Ġwhy": 2404,
      "Ġmax": 2405,
      "no": 2406,
      "UR": 2407,
      "ctor": 2408,
      "iles": 2409,
      "Ġrespons": 2410,
      "rel": 2411,
      "medi": 2412,
      "ĠOr": 2413,
      "Ġheart": 2414,
      "Ġrole": 2415,
      "Ġms": 2416,
      "Ġspect": 2417,
      "^\\": 2418,
      "Ġmove": 2419,
      "Ġtoget": 2420,
      "06": 2421,
      "time": 2422,
      "Ġevalu": 2423,
      "Ġcomplet": 2424,
      "$-": 2425,
      "*,": 2426,
      "Ġ=>": 2427,
      "Ġcy": 2428,
      "46": 2429,
      "Ġpued": 2430,
      "Ġill": 2431,
      "Ġtogether": 2432,
      "ogen": 2433,
      "List": 2434,
      "Ġthough": 2435,
      "Ġversion": 2436,
      "wise": 2437,
      "Ġaccording": 2438,
      "comm": 2439,
      "rem": 2440,
      "date": 2441,
      "Ġep": 2442,
      "Ġthought": 2443,
      "------------": 2444,
      "ories": 2445,
      "icy": 2446,
      "td": 2447,
      "ĠCont": 2448,
      "nu": 2449,
      "ino": 2450,
      "Col": 2451,
      "Ġothers": 2452,
      "\\_": 2453,
      "Ġservice": 2454,
      "test": 2455,
      "Ġ$(": 2456,
      "Ġbound": 2457,
      "Ġdefined": 2458,
      "Ġansw": 2459,
      "illed": 2460,
      "gment": 2461,
      "Ġfar": 2462,
      "Ġfoc": 2463,
      "Ġdevice": 2464,
      "sl": 2465,
      "Ġdeath": 2466,
      "Ġkeep": 2467,
      "Ġq": 2468,
      "chie": 2469,
      "Ar": 2470,
      "my": 2471,
      "Ġmaking": 2472,
      "Ġred": 2473,
      "////": 2474,
      "ĠFig": 2475,
      "Ġdig": 2476,
      "Ġcourse": 2477,
      "ache": 2478,
      "Figure": 2479,
      "Ġcause": 2480,
      "Ġproperty": 2481,
      "import": 2482,
      "Ġbase": 2483,
      "Ġfeel": 2484,
      "Ġgot": 2485,
      "mp": 2486,
      "ĠBrah": 2487,
      "Ġbeg": 2488,
      "ump": 2489,
      "big": 2490,
      "ĠEn": 2491,
      "istic": 2492,
      "icult": 2493,
      "Ġschool": 2494,
      "ĠOne": 2495,
      "uration": 2496,
      "Ġapplication": 2497,
      "Ġconcent": 2498,
      "Is": 2499,
      "Ġclin": 2500,
      "Ġissue": 2501,
      "Ġtherefore": 2502,
      "Ġapproach": 2503,
      "Ġweek": 2504,
      "Ġcard": 2505,
      "Ġconsist": 2506,
      "42": 2507,
      "iter": 2508,
      "Ġoffic": 2509,
      "Ġpositive": 2510,
      "ledge": 2511,
      "pm": 2512,
      "Ġpoints": 2513,
      "Ġdeb": 2514,
      "ned": 2515,
      "Ġelements": 2516,
      "ĠWith": 2517,
      "uk": 2518,
      "Ġlot": 2519,
      "Ġlimit": 2520,
      "Ġrelations": 2521,
      "cret": 2522,
      "era": 2523,
      "Ġmill": 2524,
      "Ġsus": 2525,
      "irm": 2526,
      "tau": 2527,
      "Ġresearch": 2528,
      "Ġbenef": 2529,
      "ister": 2530,
      "Ġweight": 2531,
      "Ġshowed": 2532,
      "Ġtell": 2533,
      "uck": 2534,
      "umn": 2535,
      "Ġonce": 2536,
      "delta": 2537,
      "ram": 2538,
      "uses": 2539,
      "Ġmut": 2540,
      "ges": 2541,
      "Ġnull": 2542,
      "ley": 2543,
      "Ph": 2544,
      "}}\\": 2545,
      "Ġmethods": 2546,
      "rs": 2547,
      "Ġir": 2548,
      "Ġ50": 2549,
      "Ġintegr": 2550,
      "Ġsolution": 2551,
      "Ġfac": 2552,
      "Ġdem": 2553,
      "ĠLe": 2554,
      "imum": 2555,
      "Ġord": 2556,
      "'re": 2557,
      "head": 2558,
      "Ġconsidered": 2559,
      "Ġregion": 2560,
      "inary": 2561,
      "Ġwrit": 2562,
      "Ġdisease": 2563,
      "Ġdeg": 2564,
      "uture": 2565,
      "iver": 2566,
      "Ġdemon": 2567,
      "posed": 2568,
      "UT": 2569,
      "Ġprior": 2570,
      "fficient": 2571,
      "86": 2572,
      "rist": 2573,
      "Ġ\\\\": 2574,
      "bit": 2575,
      "Ġrelated": 2576,
      "Ġdiv": 2577,
      "ideo": 2578,
      "abor": 2579,
      "utes": 2580,
      "pper": 2581,
      "Ġmom": 2582,
      "Ġnat": 2583,
      "],[@": 2584,
      "Ġvoid": 2585,
      "oud": 2586,
      "Cont": 2587,
      "Ġhost": 2588,
      "Ġcustom": 2589,
      "Ġshows": 2590,
      "rec": 2591,
      "%)": 2592,
      "lam": 2593,
      "ĠBy": 2594,
      "Ġparticip": 2595,
      "Ġauthor": 2596,
      "vant": 2597,
      "Ġthird": 2598,
      "Ġbattle": 2599,
      "App": 2600,
      "conom": 2601,
      "Ġsite": 2602,
      "Ġdifficult": 2603,
      "Ġbelow": 2604,
      "side": 2605,
      "andom": 2606,
      "ged": 2607,
      "CH": 2608,
      "Ġrespectively": 2609,
      "How": 2610,
      "Ġtw": 2611,
      "Ġfood": 2612,
      "Ġlength": 2613,
      "omega": 2614,
      "ĠAss": 2615,
      "ops": 2616,
      "lied": 2617,
      "OP": 2618,
      "order": 2619,
      "oms": 2620,
      "comp": 2621,
      "ulated": 2622,
      "Ġrat": 2623,
      "ilit": 2624,
      "times": 2625,
      "You": 2626,
      "Ġearly": 2627,
      "Ġworking": 2628,
      "Ġfive": 2629,
      "Ġteam": 2630,
      "ĠAfter": 2631,
      "Ġcame": 2632,
      "state": 2633,
      "Ġmind": 2634,
      "Ġinhib": 2635,
      "Ġspecies": 2636,
      "Ġdire": 2637,
      "Ġpredict": 2638,
      "Ġfalse": 2639,
      "OS": 2640,
      "ĠThus": 2641,
      "Ġdemonstr": 2642,
      "TR": 2643,
      "Ġinj": 2644,
      "Ġimmun": 2645,
      "ĠIN": 2646,
      "position": 2647,
      "xi": 2648,
      "span": 2649,
      "isc": 2650,
      "He": 2651,
      "Ġbit": 2652,
      "ĠInt": 2653,
      "urs": 2654,
      "'ve": 2655,
      "Ġagre": 2656,
      "Ġcorrect": 2657,
      "But": 2658,
      "Ġwa": 2659,
      "oes": 2660,
      "Ġachie": 2661,
      "ĠCan": 2662,
      "Ġexam": 2663,
      "ĠLa": 2664,
      "Ġimplement": 2665,
      "odes": 2666,
      "oph": 2667,
      "ama": 2668,
      "On": 2669,
      "Ġmodels": 2670,
      "Ġindu": 2671,
      "lobal": 2672,
      "ĠBook": 2673,
      "ols": 2674,
      "Ġinflu": 2675,
      "ĠBl": 2676,
      "Ġcut": 2677,
      "DE": 2678,
      "iqu": 2679,
      "Ġ(-": 2680,
      "mber": 2681,
      "Ġwhole": 2682,
      "etition": 2683,
      "Ġperformance": 2684,
      "ession": 2685,
      "dro": 2686,
      "84": 2687,
      "minist": 2688,
      "ĠUniversity": 2689,
      "olve": 2690,
      "Ġrather": 2691,
      "erences": 2692,
      "Ġoutput": 2693,
      "rad": 2694,
      "ief": 2695,
      "with": 2696,
      "])": 2697,
      "Ġcancer": 2698,
      "comes": 2699,
      "Ġemb": 2700,
      "Ġdepend": 2701,
      "Ġsignificantly": 2702,
      "Ġassess": 2703,
      "Ġyet": 2704,
      "rary": 2705,
      "Ġenough": 2706,
      "Ġang": 2707,
      "Ġhimself": 2708,
      "oney": 2709,
      "partial": 2710,
      "off": 2711,
      "list": 2712,
      "Ġsimple": 2713,
      "une": 2714,
      "Ġmonths": 2715,
      "lying": 2716,
      "IV": 2717,
      "Ġutil": 2718,
      "Ġprint": 2719,
      "itch": 2720,
      "theta": 2721,
      "bject": 2722,
      "ida": 2723,
      "![": 2724,
      "Ġassum": 2725,
      "Ġdefin": 2726,
      "AV": 2727,
      "Ġtable": 2728,
      "ris": 2729,
      "}$,": 2730,
      "Ġwomen": 2731,
      "Ġ...": 2732,
      "Ġblood": 2733,
      ".)": 2734,
      "aged": 2735,
      "Ġvar": 2736,
      "html": 2737,
      "ached": 2738,
      "Ġdisplay": 2739,
      "Ġtum": 2740,
      "Ġur": 2741,
      "Data": 2742,
      "Ġsal": 2743,
      "pose": 2744,
      "ences": 2745,
      "\");": 2746,
      "Ġtaken": 2747,
      "isf": 2748,
      "59": 2749,
      "ĠBh": 2750,
      "Ġever": 2751,
      "Ġpick": 2752,
      "inding": 2753,
      "ĠTe": 2754,
      "ĠPat": 2755,
      "XX": 2756,
      "Ġscre": 2757,
      "Ġadditional": 2758,
      "\".": 2759,
      "Ġspecial": 2760,
      "ites": 2761,
      "IM": 2762,
      "Ġaddress": 2763,
      "Ġenvironment": 2764,
      "leq": 2765,
      "Ġmatter": 2766,
      "Im": 2767,
      "aging": 2768,
      "ĠEuro": 2769,
      "ux": 2770,
      "Ġfund": 2771,
      "Ġcross": 2772,
      "ened": 2773,
      "Ġhistory": 2774,
      "43": 2775,
      "ilt": 2776,
      "Un": 2777,
      "Ġincluded": 2778,
      "Ġcomo": 2779,
      "82": 2780,
      "ĠMy": 2781,
      "Ġpattern": 2782,
      "Ġload": 2783,
      "ownload": 2784,
      "79": 2785,
      "With": 2786,
      "now": 2787,
      "pre": 2788,
      "uly": 2789,
      "Ref": 2790,
      "ening": 2791,
      "onal": 2792,
      "Ġloss": 2793,
      "2006": 2794,
      "Ġdrug": 2795,
      "Ġele": 2796,
      "Ġthing": 2797,
      "bf": 2798,
      "do": 2799,
      "Ġcompany": 2800,
      "Ġbar": 2801,
      "atus": 2802,
      "lim": 2803,
      "View": 2804,
      "ĠEng": 2805,
      "Ġimprove": 2806,
      "ĠMah": 2807,
      "ortun": 2808,
      "ico": 2809,
      "Ġlanguage": 2810,
      "define": 2811,
      "rest": 2812,
      "Ġwhose": 2813,
      "Ġlink": 2814,
      "Ġlikely": 2815,
      "CE": 2816,
      "Ġmaint": 2817,
      "ĠMay": 2818,
      "raft": 2819,
      "ĠMore": 2820,
      "Ġ$$": 2821,
      "Ġadj": 2822,
      "PE": 2823,
      "Ġprinc": 2824,
      "Ġtemperature": 2825,
      "outh": 2826,
      "Ġlines": 2827,
      "uth": 2828,
      "orith": 2829,
      "Ġdim": 2830,
      "Ġvia": 2831,
      "Ġfire": 2832,
      "Ġgenes": 2833,
      "Table": 2834,
      "Ġdifference": 2835,
      "Ġbreak": 2836,
      "ony": 2837,
      "Ġexperience": 2838,
      "56": 2839,
      "hel": 2840,
      "41": 2841,
      "Ġfall": 2842,
      "\"\"": 2843,
      "see": 2844,
      "Ġmeet": 2845,
      "Ġfav": 2846,
      "rc": 2847,
      "Ġlove": 2848,
      "Ġcontext": 2849,
      "Ġsocial": 2850,
      "Ġmotion": 2851,
      "FF": 2852,
      "Ġremov": 2853,
      "Ġespec": 2854,
      "ze": 2855,
      "Ġacross": 2856,
      "Ġarray": 2857,
      "ĠJoh": 2858,
      "Ġadded": 2859,
      "Ġground": 2860,
      "Ġreceived": 2861,
      "uous": 2862,
      "net": 2863,
      "ounds": 2864,
      "icense": 2865,
      "Err": 2866,
      "amed": 2867,
      "mitted": 2868,
      "Ġhom": 2869,
      "ocal": 2870,
      "Ġmiss": 2871,
      "nter": 2872,
      "ls": 2873,
      "Ġpast": 2874,
      "semb": 2875,
      "Ġstates": 2876,
      "ios": 2877,
      "ula": 2878,
      "empl": 2879,
      "Ġservices": 2880,
      "Ġclos": 2881,
      "Ġsitu": 2882,
      "like": 2883,
      "Ġparent": 2884,
      "Ġinitial": 2885,
      "Ġpatient": 2886,
      "Ġintrodu": 2887,
      "}$.": 2888,
      "Ġfeatures": 2889,
      "Ġmakes": 2890,
      "Ġgene": 2891,
      "uments": 2892,
      "vy": 2893,
      "Delta": 2894,
      "ii": 2895,
      "Ġbecame": 2896,
      "Ġgovernment": 2897,
      "ication": 2898,
      "Ġpaper": 2899,
      "Ġaccept": 2900,
      "atively": 2901,
      "Ġexperiment": 2902,
      "Ġdam": 2903,
      "https": 2904,
      "ĠAmerican": 2905,
      "atal": 2906,
      "ball": 2907,
      "Ġblock": 2908,
      "Ġsequence": 2909,
      "Ġprevent": 2910,
      "Ġyoung": 2911,
      "infty": 2912,
      "hem": 2913,
      "________": 2914,
      "Ġdecl": 2915,
      "mail": 2916,
      "Ġprovides": 2917,
      "'ll": 2918,
      "ĠMe": 2919,
      "Ġstep": 2920,
      "Ġentire": 2921,
      "aving": 2922,
      "Ġpub": 2923,
      "width": 2924,
      "Ġfuture": 2925,
      "apt": 2926,
      "aff": 2927,
      "Ġann": 2928,
      "ynam": 2929,
      "Ġviol": 2930,
      "Ġknowledge": 2931,
      "lor": 2932,
      "Ġnight": 2933,
      "lt": 2934,
      "Ġfunctions": 2935,
      "irth": 2936,
      "Ġcle": 2937,
      "artment": 2938,
      "Ġtook": 2939,
      "CL": 2940,
      "96": 2941,
      "Ġprog": 2942,
      "')": 2943,
      "Ġmi": 2944,
      "Ġcolor": 2945,
      "anced": 2946,
      "Ġdie": 2947,
      ".*": 2948,
      "Ġcompar": 2949,
      "mary": 2950,
      "MS": 2951,
      "Ġsearch": 2952,
      "oss": 2953,
      "ĠGr": 2954,
      "izing": 2955,
      "IR": 2956,
      "53": 2957,
      "inks": 2958,
      "ĠQu": 2959,
      "Ġvalid": 2960,
      "Ġdoing": 2961,
      "reen": 2962,
      "ĠTherefore": 2963,
      "function": 2964,
      "Ġseries": 2965,
      "Ġchall": 2966,
      "Ġproperties": 2967,
      "Ġmembers": 2968,
      "ĠAN": 2969,
      "Re": 2970,
      "Ġoriginal": 2971,
      "Ġdistribution": 2972,
      "struct": 2973,
      "Ġgrowth": 2974,
      "Ġrelationship": 2975,
      "fect": 2976,
      "itting": 2977,
      "itution": 2978,
      "Ġtiss": 2979,
      "itten": 2980,
      "Ġpresence": 2981,
      "Ġexec": 2982,
      "ĠAm": 2983,
      "Ġsample": 2984,
      "ips": 2985,
      "Ġjob": 2986,
      "Ġreve": 2987,
      "augh": 2988,
      "fully": 2989,
      "Ġhouse": 2990,
      "Ġphase": 2991,
      "Ġwww": 2992,
      "RNA": 2993,
      "ras": 2994,
      "Ġsix": 2995,
      "Ġ(\\[": 2996,
      "Ġsac": 2997,
      "cing": 2998,
      "Ġ\\<": 2999,
      "83": 3000,
      "Ġsaf": 3001,
      "ender": 3002,
      "Ġactually": 3003,
      "based": 3004,
      "Ġox": 3005,
      "Ġquality": 3006,
      "box": 3007,
      "ara": 3008,
      "76": 3009,
      "where": 3010,
      "^*": 3011,
      "size": 3012,
      "ched": 3013,
      "ĠMan": 3014,
      "Ġseem": 3015,
      "Ġconfig": 3016,
      "\\\\": 3017,
      "pen": 3018,
      "Ġconcer": 3019,
      "Ġpage": 3020,
      "acc": 3021,
      "Ġnecessary": 3022,
      "raction": 3023,
      "Ġproced": 3024,
      "Ġindex": 3025,
      "Ġparameters": 3026,
      "pping": 3027,
      "ĠHere": 3028,
      "ches": 3029,
      "sel": 3030,
      "Ġmarket": 3031,
      "Ġplaintiff": 3032,
      "ĠCar": 3033,
      "ober": 3034,
      "path": 3035,
      "hing": 3036,
      "orld": 3037,
      "ilities": 3038,
      "code": 3039,
      "more": 3040,
      "Ġtypes": 3041,
      "Ġaccom": 3042,
      "rief": 3043,
      "Ġclose": 3044,
      "ĠAct": 3045,
      "Wh": 3046,
      "OC": 3047,
      "Ġtrad": 3048,
      "istance": 3049,
      "Ġpolit": 3050,
      "Ġinstall": 3051,
      "Ġcontact": 3052,
      "]^": 3053,
      "areps": 3054,
      "Ġmole": 3055,
      "hest": 3056,
      "Ġcollect": 3057,
      "Ġpopulation": 3058,
      "Ġappear": 3059,
      "EM": 3060,
      "oma": 3061,
      "ider": 3062,
      "98": 3063,
      "Ġvirt": 3064,
      "ĠMed": 3065,
      "Ġsamples": 3066,
      "Pl": 3067,
      "Ġ!=": 3068,
      "oe": 3069,
      "uild": 3070,
      "ĠAg": 3071,
      "Ġfollows": 3072,
      "bol": 3073,
      "Ġitself": 3074,
      "Ġsem": 3075,
      "come": 3076,
      "Ġframe": 3077,
      "UN": 3078,
      "Ġclinical": 3079,
      "Ġsatisf": 3080,
      "Ġ21": 3081,
      "Ġinstead": 3082,
      "\\*": 3083,
      "54": 3084,
      "ura": 3085,
      "ĠMar": 3086,
      "ili": 3087,
      "Ġpercent": 3088,
      "Ġ?": 3089,
      "print": 3090,
      "Ġcoll": 3091,
      "actions": 3092,
      "rav": 3093,
      "Ġheav": 3094,
      "Ġprec": 3095,
      "/*": 3096,
      "IL": 3097,
      "ĠEl": 3098,
      "rite": 3099,
      "oad": 3100,
      "78": 3101,
      "Ġfilm": 3102,
      "overed": 3103,
      "clusion": 3104,
      "utions": 3105,
      "fl": 3106,
      "Ġmoment": 3107,
      "Ġcreated": 3108,
      "Ġproduction": 3109,
      "94": 3110,
      "ided": 3111,
      "istics": 3112,
      "Ġdetermined": 3113,
      "Ġpair": 3114,
      "ĠCount": 3115,
      "Ġneeds": 3116,
      "Ġprivate": 3117,
      "Ġsil": 3118,
      "Ġwent": 3119,
      "include": 3120,
      "ias": 3121,
      "ĠRep": 3122,
      "Ġderiv": 3123,
      "Ġworks": 3124,
      "Ġdecision": 3125,
      "ply": 3126,
      "Ġacqu": 3127,
      "ulations": 3128,
      "ĠBrahman": 3129,
      "Ġacid": 3130,
      "Ġsoftware": 3131,
      "but": 3132,
      "itude": 3133,
      "58": 3134,
      "Ġattribute": 3135,
      "]{},": 3136,
      "ĠAP": 3137,
      "Ġexpected": 3138,
      "72": 3139,
      "Ġheld": 3140,
      "bt": 3141,
      "Ġtrack": 3142,
      "Ġ||": 3143,
      "rim": 3144,
      "Ġproceed": 3145,
      "Ġseems": 3146,
      "Value": 3147,
      "Ġland": 3148,
      "Ġanim": 3149,
      "|\\": 3150,
      "Ġface": 3151,
      "}(\\": 3152,
      "ried": 3153,
      "arepsilon": 3154,
      "varepsilon": 3155,
      "Ġeconom": 3156,
      "Ġcompl": 3157,
      "Ġanti": 3158,
      "ING": 3159,
      "htm": 3160,
      "Ġalgorith": 3161,
      "ai": 3162,
      "Ġweb": 3163,
      "ĠCent": 3164,
      "cy": 3165,
      "Ġremain": 3166,
      "Ġhalf": 3167,
      "using": 3168,
      "ĠAMD": 3169,
      "Ġhyp": 3170,
      "Ġdefendant": 3171,
      "Ġdetermine": 3172,
      "reng": 3173,
      "Ġrecogn": 3174,
      "Ġdivid": 3175,
      "Ġobtain": 3176,
      "Ġinvolved": 3177,
      "su": 3178,
      "Ġrandom": 3179,
      "Ġess": 3180,
      "enn": 3181,
      "74": 3182,
      "Ġquick": 3183,
      "Ġdiagn": 3184,
      "iones": 3185,
      "../": 3186,
      "ste": 3187,
      "tilde": 3188,
      "ĠCD": 3189,
      "Ġevents": 3190,
      "Ġsays": 3191,
      "Ġpan": 3192,
      "oman": 3193,
      "Ġdont": 3194,
      "ike": 3195,
      "ĠDef": 3196,
      "Ġphysical": 3197,
      "ĠCor": 3198,
      "Ġapplied": 3199,
      "Ġblack": 3200,
      "PS": 3201,
      "men": 3202,
      "Ġapproxim": 3203,
      "body": 3204,
      "OL": 3205,
      "ya": 3206,
      "yth": 3207,
      "Ġcopy": 3208,
      "Ġnuc": 3209,
      "Ġge": 3210,
      "By": 3211,
      "When": 3212,
      "EX": 3213,
      "ĠInst": 3214,
      "inally": 3215,
      "Ġimpact": 3216,
      "Ġvideo": 3217,
      "Ġproblems": 3218,
      "ronic": 3219,
      "Ġpersonal": 3220,
      "There": 3221,
      "culate": 3222,
      "Ġ22": 3223,
      "ming": 3224,
      "rak": 3225,
      "translation": 3226,
      "Ġconsequ": 3227,
      "ections": 3228,
      "quad": 3229,
      "Ġnatural": 3230,
      "TH": 3231,
      "Ġcountry": 3232,
      "Ġautom": 3233,
      "Ġdistrict": 3234,
      "Ġword": 3235,
      "Ġ28": 3236,
      "ĠId": 3237,
      "Ġaverage": 3238,
      "Ġ40": 3239,
      "ĠMr": 3240,
      "operator": 3241,
      "93": 3242,
      "73": 3243,
      "Ġdate": 3244,
      "Ġadminist": 3245,
      "ĠDNA": 3246,
      "anch": 3247,
      "Ġ},": 3248,
      "Ġbring": 3249,
      "ĠGod": 3250,
      "Ġsett": 3251,
      "Ġscript": 3252,
      "Ġinvention": 3253,
      "ills": 3254,
      "Ġetc": 3255,
      "($": 3256,
      "anks": 3257,
      "Ġstory": 3258,
      "ĠTHE": 3259,
      "Ġeduc": 3260,
      "selves": 3261,
      "Ġlive": 3262,
      "dis": 3263,
      "lementary": 3264,
      "Ġforce": 3265,
      "Ġcomplete": 3266,
      "ĠRev": 3267,
      "Ġlooking": 3268,
      "ĠSte": 3269,
      "ying": 3270,
      "Ġtalk": 3271,
      "ega": 3272,
      "Ġreference": 3273,
      "Ġanaly": 3274,
      "ributed": 3275,
      "Ġcompos": 3276,
      "Se": 3277,
      "Ġspeed": 3278,
      "ĠMahabharata": 3279,
      "Ġpresented": 3280,
      "Ġidea": 3281,
      "Ġcity": 3282,
      "Ġeffective": 3283,
      "|/": 3284,
      "Ġtax": 3285,
      ":///": 3286,
      "Ġbegin": 3287,
      "rangle": 3288,
      "Ġmice": 3289,
      "Ġbegan": 3290,
      "Ġcorresponding": 3291,
      "Ġsex": 3292,
      "Ġaccur": 3293,
      "Ġfig": 3294,
      "document": 3295,
      "ises": 3296,
      "Ġseason": 3297,
      "Ġmount": 3298,
      "ownloaded": 3299,
      "^[@": 3300,
      "sim": 3301,
      "Ġidentified": 3302,
      "ensive": 3303,
      "Ġhor": 3304,
      "ĠJan": 3305,
      "english": 3306,
      "ENT": 3307,
      "Ġexact": 3308,
      "Ġ/*": 3309,
      "Ġtaking": 3310,
      "Ġconstant": 3311,
      "Int": 3312,
      "Ġgrad": 3313,
      "Ġmach": 3314,
      "Ġcommunity": 3315,
      "Ġanything": 3316,
      "PR": 3317,
      "osph": 3318,
      "No": 3319,
      "Ġ:=": 3320,
      "Ġcontain": 3321,
      "So": 3322,
      "52": 3323,
      "prose": 3324,
      "................................": 3325,
      "Ġinform": 3326,
      "vyasa": 3327,
      "Ġwrite": 3328,
      "ĠAMDownloaded": 3329,
      "Ġmemory": 3330,
      "Ġattempt": 3331,
      "Ġchem": 3332,
      "Ġfoot": 3333,
      "sy": 3334,
      "Ġrace": 3335,
      ");}": 3336,
      "ando": 3337,
      "63": 3338,
      "Ġconsum": 3339,
      "Ġalmost": 3340,
      "Ġles": 3341,
      "iments": 3342,
      "ĠInc": 3343,
      "za": 3344,
      "sk": 3345,
      ")=": 3346,
      "62": 3347,
      "Ġmedia": 3348,
      "Ġmoney": 3349,
      "astic": 3350,
      "Ġgenerally": 3351,
      "rid": 3352,
      "aled": 3353,
      "ults": 3354,
      "Ġpressure": 3355,
      "Ġneeded": 3356,
      "ĠEurope": 3357,
      "vere": 3358,
      "sm": 3359,
      "Ġissues": 3360,
      "icon": 3361,
      "ĠComp": 3362,
      "Ġstri": 3363,
      "ils": 3364,
      "clus": 3365,
      "Ġcontroll": 3366,
      "Ind": 3367,
      "Ġbow": 3368,
      "Ġactive": 3369,
      "Ġhours": 3370,
      "Ġprimary": 3371,
      "Ġunto": 3372,
      "Ġtold": 3373,
      "ccording": 3374,
      "ĠNot": 3375,
      "ĠSuppose": 3376,
      ")$.": 3377,
      "Ġtrying": 3378,
      "?-": 3379,
      "*~": 3380,
      "Ġgreater": 3381,
      "Ġproducts": 3382,
      "Ġpain": 3383,
      "ags": 3384,
      "ken": 3385,
      "ython": 3386,
      "ĠDo": 3387,
      "Ġstreng": 3388,
      "Ġrefer": 3389,
      "rown": 3390,
      "cdot": 3391,
      "Ġmer": 3392,
      "light": 3393,
      "Ġrecomm": 3394,
      "Ġdeveloped": 3395,
      "Ġoption": 3396,
      "Ġreduced": 3397,
      "CD": 3398,
      "ido": 3399,
      "Ġnothing": 3400,
      "Ġfem": 3401,
      "ĠTable": 3402,
      "eter": 3403,
      "Ġindust": 3404,
      "mar": 3405,
      "pret": 3406,
      "word": 3407,
      "Ġrecent": 3408,
      "ĠDist": 3409,
      "Ġcontract": 3410,
      "ĠFurther": 3411,
      "Ġbelieve": 3412,
      "Object": 3413,
      "Ġhighly": 3414,
      "OD": 3415,
      "array": 3416,
      "Ġmatch": 3417,
      "Ġdeal": 3418,
      "ĠGener": 3419,
      "Ġjo": 3420,
      "acement": 3421,
      "Ġ&&": 3422,
      "ĠPre": 3423,
      "ography": 3424,
      "point": 3425,
      "avig": 3426,
      "Ġeyes": 3427,
      "kn": 3428,
      "Ġflo": 3429,
      "lig": 3430,
      "Ġhab": 3431,
      "ĠSim": 3432,
      "Ġgetting": 3433,
      "Ġantib": 3434,
      "Ġ23": 3435,
      "Ġtraining": 3436,
      "perty": 3437,
      "IF": 3438,
      "Ġnode": 3439,
      "Ġsense": 3440,
      "operatorname": 3441,
      "ector": 3442,
      "Sh": 3443,
      "oll": 3444,
      "ĠGu": 3445,
      "Ġearth": 3446,
      "ds": 3447,
      "elling": 3448,
      "}}$": 3449,
      "dev": 3450,
      "iction": 3451,
      "Ġlimited": 3452,
      "Ġcomes": 3453,
      "Ġstatus": 3454,
      "Ġsi": 3455,
      "Ġmis": 3456,
      "\";": 3457,
      "ging": 3458,
      "Ġconv": 3459,
      "fn": 3460,
      "Ġelectro": 3461,
      "Ġtheory": 3462,
      "ĠSystem": 3463,
      "Ġjudgment": 3464,
      "Ġanswer": 3465,
      "field": 3466,
      "ĠOF": 3467,
      "Ġexpress": 3468,
      "Ġful": 3469,
      "una": 3470,
      "Ġfollowed": 3471,
      "Ġgas": 3472,
      "Ġbehavior": 3473,
      "Ġstrateg": 3474,
      "Ġavoid": 3475,
      "51": 3476,
      "Ġvers": 3477,
      "avas": 3478,
      "Ġsteps": 3479,
      "ogle": 3480,
      "92": 3481,
      "\\])": 3482,
      "ĠPhys": 3483,
      "81": 3484,
      "Ġdirectly": 3485,
      "Ġten": 3486,
      "iven": 3487,
      "Ġdensity": 3488,
      "Ġespecially": 3489,
      "anes": 3490,
      "Ġtoday": 3491,
      "Ġbasis": 3492,
      "arily": 3493,
      "Ġrepe": 3494,
      "Ġ[*": 3495,
      "Error": 3496,
      "Ġtowards": 3497,
      "px": 3498,
      "Ġincludes": 3499,
      "Ġnature": 3500,
      "Ġappropri": 3501,
      "Ġlayer": 3502,
      "po": 3503,
      "Ġens": 3504,
      "Ġpen": 3505,
      "Ġpreviously": 3506,
      "((": 3507,
      "Ġcry": 3508,
      "Ġste": 3509,
      "Ġaffect": 3510,
      "spec": 3511,
      "Ġroom": 3512,
      "ĠPand": 3513,
      "71": 3514,
      "den": 3515,
      "ĠAb": 3516,
      "Ġsin": 3517,
      "Ġimpl": 3518,
      "AA": 3519,
      "SD": 3520,
      "Ġstyle": 3521,
      "met": 3522,
      "Ġbur": 3523,
      "Ġtransfer": 3524,
      "ager": 3525,
      "aves": 3526,
      "Ġasked": 3527,
      "isms": 3528,
      "En": 3529,
      "Ġnumbers": 3530,
      "ĠGe": 3531,
      "Ġimages": 3532,
      "asons": 3533,
      "ULL": 3534,
      "length": 3535,
      "Ġconstruct": 3536,
      "Ġlack": 3537,
      "ĠYork": 3538,
      "Ġquestions": 3539,
      "Ġincreasing": 3540,
      "Ġsha": 3541,
      "Om": 3542,
      "Ġclust": 3543,
      "ĠDep": 3544,
      "Ġdefault": 3545,
      "Ġwhite": 3546,
      "Ġrot": 3547,
      "sing": 3548,
      "oding": 3549,
      "****************": 3550,
      "Ġcu": 3551,
      "Ġdirection": 3552,
      "Ġunit": 3553,
      "Ġfront": 3554,
      "Ġsurv": 3555,
      "'d": 3556,
      "Ġproteins": 3557,
      "MP": 3558,
      "Ġmember": 3559,
      "Ġcapac": 3560,
      "Ġwin": 3561,
      "pat": 3562,
      "eks": 3563,
      "lease": 3564,
      "}=": 3565,
      "icles": 3566,
      "Ġlonger": 3567,
      "ĠDr": 3568,
      "Ġrunning": 3569,
      "Ġcommand": 3570,
      "Ġmeasured": 3571,
      "Ġ26": 3572,
      "Ġpack": 3573,
      "Ġfib": 3574,
      "Ġaltern": 3575,
      "from": 3576,
      "Ġwebs": 3577,
      "Ġminutes": 3578,
      "Ġlearning": 3579,
      "Ġdifferences": 3580,
      "Ġstress": 3581,
      "Ġer": 3582,
      "ĠII": 3583,
      "Ġpolicy": 3584,
      "umb": 3585,
      "ira": 3586,
      "rial": 3587,
      "ards": 3588,
      "Ġobjects": 3589,
      "och": 3590,
      "olic": 3591,
      "param": 3592,
      "igen": 3593,
      "ecause": 3594,
      "Ġprobably": 3595,
      "fs": 3596,
      "elt": 3597,
      "Ġindependent": 3598,
      "ĠChrist": 3599,
      "Ġauth": 3600,
      "\"><": 3601,
      "Ġ}}": 3602,
      "ĠSu": 3603,
      "Ġareas": 3604,
      "ĠBo": 3605,
      "Ġequal": 3606,
      "Ġparty": 3607,
      "rew": 3608,
      "Ġce": 3609,
      "){#": 3610,
      "Ad": 3611,
      ".\\": 3612,
      "ĠNational": 3613,
      "ellant": 3614,
      "itation": 3615,
      "Ġmatrix": 3616,
      "Ġdevices": 3617,
      "joy": 3618,
      "itions": 3619,
      "mo": 3620,
      "Key": 3621,
      "ĠReg": 3622,
      "Ġnote": 3623,
      "Ġquite": 3624,
      "Ġglobal": 3625,
      "Ġdynam": 3626,
      "Ġveh": 3627,
      "cell": 3628,
      "iddle": 3629,
      "ster": 3630,
      "Ġaud": 3631,
      "91": 3632,
      "Ġ----------------": 3633,
      "Ġfriend": 3634,
      "lib": 3635,
      "Ġenh": 3636,
      "Ġstatic": 3637,
      "My": 3638,
      "ĠOur": 3639,
      "));": 3640,
      "Ġoperation": 3641,
      "Ġability": 3642,
      "ayer": 3643,
      "\",\"": 3644,
      "Set": 3645,
      "Ġwritten": 3646,
      "^{(": 3647,
      "Ġmighty": 3648,
      "Suppose": 3649,
      "cho": 3650,
      "ena": 3651,
      "otic": 3652,
      "Ġopin": 3653,
      "Ġconcept": 3654,
      "Ġmap": 3655,
      "Ġcomponents": 3656,
      "Ġinstance": 3657,
      "cin": 3658,
      "ederal": 3659,
      "lin": 3660,
      "his": 3661,
      "Ġpie": 3662,
      "ĠWhile": 3663,
      "uel": 3664,
      "js": 3665,
      "Ġmode": 3666,
      "Ġrespond": 3667,
      "Ġnegative": 3668,
      "het": 3669,
      "ĠGo": 3670,
      "cm": 3671,
      "annel": 3672,
      "}^{\\": 3673,
      "Ġeasy": 3674,
      "Ġmedical": 3675,
      "Ġcamp": 3676,
      "Ġbeaut": 3677,
      "Ġusers": 3678,
      "supp": 3679,
      "vis": 3680,
      "At": 3681,
      "Ġhydro": 3682,
      "Ġrelative": 3683,
      "script": 3684,
      "aches": 3685,
      "Or": 3686,
      "Ġstarted": 3687,
      "Ġformer": 3688,
      "Ġda": 3689,
      "opl": 3690,
      "ĠSince": 3691,
      "ĠMc": 3692,
      "Ġdivided": 3693,
      "ĠCir": 3694,
      "Omega": 3695,
      "Qu": 3696,
      "earch": 3697,
      "Ġcomponent": 3698,
      "gl": 3699,
      "bon": 3700,
      "urb": 3701,
      "oted": 3702,
      "Ed": 3703,
      "ĠPart": 3704,
      "ĠCity": 3705,
      "File": 3706,
      "Ġdraw": 3707,
      "Ġmother": 3708,
      "Ġmillion": 3709,
      "top": 3710,
      "Ġwindow": 3711,
      "Ġfiles": 3712,
      "Ġsle": 3713,
      "Ġregions": 3714,
      "Ġreflect": 3715,
      "Ġstra": 3716,
      "Ġpurpose": 3717,
      "Ġbirth": 3718,
      ")-": 3719,
      "orph": 3720,
      "ĠJohn": 3721,
      "Ġsimply": 3722,
      "Ġcontr": 3723,
      "Ġprotect": 3724,
      "Ġfrequency": 3725,
      "002": 3726,
      "ĠSome": 3727,
      "Ġthous": 3728,
      "iated": 3729,
      "Ġhyper": 3730,
      "undred": 3731,
      "ĠCO": 3732,
      "Ġcaused": 3733,
      "illi": 3734,
      "pa": 3735,
      "Ġrelevant": 3736,
      "Ġ60": 3737,
      "Ġalthough": 3738,
      "Ġeverything": 3739,
      "mpt": 3740,
      "year": 3741,
      ")$,": 3742,
      "Ġ27": 3743,
      ".$$": 3744,
      "ĠOR": 3745,
      "hesis": 3746,
      "Ġpret": 3747,
      "Ġsqu": 3748,
      "Ps": 3749,
      "Cal": 3750,
      "Ġfeed": 3751,
      "Ġonline": 3752,
      "All": 3753,
      "Ġhar": 3754,
      "omy": 3755,
      "ĠPer": 3756,
      "ivo": 3757,
      "appa": 3758,
      "Ġbroad": 3759,
      "ervice": 3760,
      "Ġhope": 3761,
      "hers": 3762,
      "osure": 3763,
      "Get": 3764,
      "Ġsynt": 3765,
      "user": 3766,
      "Ġstudents": 3767,
      "MA": 3768,
      "Ġvariable": 3769,
      "unch": 3770,
      "Ġparticularly": 3771,
      "ĠArt": 3772,
      "Ġdut": 3773,
      "Ġregular": 3774,
      "Ġmessage": 3775,
      "orem": 3776,
      "call": 3777,
      "non": 3778,
      "Ġtakes": 3779,
      "ĠSch": 3780,
      "Ġgrant": 3781,
      "ĠHis": 3782,
      "error": 3783,
      "Ġselected": 3784,
      "Ġsaw": 3785,
      "Ġmention": 3786,
      "Ġfun": 3787,
      "Ġfixed": 3788,
      "urch": 3789,
      "Ġband": 3790,
      "Ġdu": 3791,
      "ĠVal": 3792,
      "Ġcompet": 3793,
      "hood": 3794,
      "Ġinside": 3795,
      "ĠMin": 3796,
      "Ġbackground": 3797,
      "Ġdouble": 3798,
      "Ġcontains": 3799,
      "Ġuseful": 3800,
      "}_{\\": 3801,
      "Ġeffic": 3802,
      "inct": 3803,
      "Ġlabel": 3804,
      "ius": 3805,
      "Ġlarger": 3806,
      "rightarrow": 3807,
      "Ġattack": 3808,
      "61": 3809,
      "Ġauthors": 3810,
      "reet": 3811,
      "Ġrelease": 3812,
      "alt": 3813,
      "ental": 3814,
      "ube": 3815,
      "ĠST": 3816,
      "map": 3817,
      "varphi": 3818,
      "Ġfather": 3819,
      "Ġpractice": 3820,
      "Ġstrength": 3821,
      "Ġfavor": 3822,
      "rought": 3823,
      "Ġnames": 3824,
      "Ġdoesn": 3825,
      "ĠGerm": 3826,
      "Ġgod": 3827,
      "gu": 3828,
      "Ġengine": 3829,
      "reme": 3830,
      "ĠAp": 3831,
      "ades": 3832,
      "Ġusually": 3833,
      "ensure": 3834,
      "Text": 3835,
      "ĠIntern": 3836,
      "Ġnumer": 3837,
      "Ġunderstanding": 3838,
      "ĠBr": 3839,
      "void": 3840,
      "obile": 3841,
      "PP": 3842,
      "Par": 3843,
      "Ġfeature": 3844,
      "Ġassert": 3845,
      "Ġproposed": 3846,
      ">>": 3847,
      "Ġeffort": 3848,
      "Ġcompan": 3849,
      "Ġsufficient": 3850,
      "Mod": 3851,
      "Ġidentify": 3852,
      "Ġresid": 3853,
      "Ġstay": 3854,
      "oke": 3855,
      "Ġbad": 3856,
      "Ġdeep": 3857,
      "Ġproduced": 3858,
      "ospital": 3859,
      "ĠHar": 3860,
      "Ġ[**": 3861,
      "olds": 3862,
      "imate": 3863,
      "Ġweeks": 3864,
      "EL": 3865,
      "rang": 3866,
      "Ġtreated": 3867,
      "Ġprep": 3868,
      "Ġfast": 3869,
      "Ġargument": 3870,
      "hand": 3871,
      "izes": 3872,
      "Ġprop": 3873,
      "Ġsn": 3874,
      "*.": 3875,
      "Ġexcept": 3876,
      "encies": 3877,
      "efore": 3878,
      "Ġalone": 3879,
      "itute": 3880,
      "Ġdegree": 3881,
      "Ġdistance": 3882,
      "down": 3883,
      "Ġallows": 3884,
      "chi": 3885,
      "inated": 3886,
      "Ġsaying": 3887,
      "Ġscale": 3888,
      "len": 3889,
      "Ġri": 3890,
      "Ġserver": 3891,
      "Ġrule": 3892,
      "ufact": 3893,
      "Ġdesigned": 3894,
      "ials": 3895,
      "essed": 3896,
      "ĠPol": 3897,
      "Ġwond": 3898,
      "Ġlinear": 3899,
      "cast": 3900,
      "Ġliving": 3901,
      "Ġisol": 3902,
      "^+": 3903,
      "Ġbecomes": 3904,
      "Ġphen": 3905,
      "ocks": 3906,
      "Ġwrong": 3907,
      "pace": 3908,
      "][": 3909,
      "bor": 3910,
      "erent": 3911,
      "link": 3912,
      "init": 3913,
      "ĠString": 3914,
      "aries": 3915,
      "group": 3916,
      "term": 3917,
      "Ġtherap": 3918,
      "Ġoffer": 3919,
      "lock": 3920,
      "ission": 3921,
      "pers": 3922,
      "Ġcred": 3923,
      "\\].": 3924,
      "ytes": 3925,
      "Ġderivative": 3926,
      "ners": 3927,
      "Ġgraph": 3928,
      "inate": 3929,
      "De": 3930,
      "isions": 3931,
      "Ġthemselves": 3932,
      "Ġnor": 3933,
      "atform": 3934,
      "orage": 3935,
      "roph": 3936,
      "Ġmulti": 3937,
      "Ġhero": 3938,
      "Ġhundred": 3939,
      "Ġoutside": 3940,
      "Ġstim": 3941,
      "ague": 3942,
      "Ġplayers": 3943,
      "kappa": 3944,
      "ĠWorld": 3945,
      "Ġratio": 3946,
      "public": 3947,
      "Ġsuff": 3948,
      "ĠCounty": 3949,
      "ario": 3950,
      "apter": 3951,
      "Ġsoon": 3952,
      "exp": 3953,
      "Ġarch": 3954,
      "ulate": 3955,
      "Ġsomeone": 3956,
      "Ġmusic": 3957,
      "abase": 3958,
      "Ġcontaining": 3959,
      "ĠSer": 3960,
      "Ġrights": 3961,
      "Ġenjoy": 3962,
      "TP": 3963,
      "Ġalleg": 3964,
      "Ġcomputer": 3965,
      "ĠIts": 3966,
      "Ġtask": 3967,
      "king": 3968,
      "Ġsuit": 3969,
      "Ġparts": 3970,
      "iet": 3971,
      "Ġrecept": 3972,
      "Ġinterpret": 3973,
      "Ġweap": 3974,
      "Ġbox": 3975,
      "eline": 3976,
      "vention": 3977,
      "Ġappeal": 3978,
      "vas": 3979,
      "Ġstage": 3980,
      "Ġmar": 3981,
      "Ġimmedi": 3982,
      "ĠRec": 3983,
      "ĠLicense": 3984,
      "Ġfriends": 3985,
      "Ġtechnology": 3986,
      "Ġsubstant": 3987,
      "GF": 3988,
      "Ġwon": 3989,
      "ottom": 3990,
      "Ġfear": 3991,
      "Ġmanagement": 3992,
      "003": 3993,
      "Ġspl": 3994,
      "ensuremath": 3995,
      "Ġmit": 3996,
      "Ġtissue": 3997,
      "Ġmg": 3998,
      "Ġparameter": 3999
    },
    "merges": [
      [
        "Ġ",
        "t"
      ],
      [
        "Ġ",
        "a"
      ],
      [
        "i",
        "n"
      ],
      [
        "h",
        "e"
      ],
      [
        "r",
        "e"
      ],
      [
        "o",
        "n"
      ],
      [
        "Ġt",
        "he"
      ],
      [
        "a",
        "t"
      ],
      [
        "e",
        "r"
      ],
      [
        "Ġ",
        "s"
      ],
      [
        "e",
        "n"
      ],
      [
        "Ġ",
        "o"
      ],
      [
        "Ġ",
        "c"
      ],
      [
        "i",
        "s"
      ],
      [
        "Ġ",
        "w"
      ],
      [
        "o",
        "r"
      ],
      [
        "e",
        "s"
      ],
      [
        "i",
        "t"
      ],
      [
        "e",
        "d"
      ],
      [
        "Ġ",
        "p"
      ],
      [
        "a",
        "n"
      ],
      [
        "a",
        "l"
      ],
      [
        "Ġ",
        "f"
      ],
      [
        "Ġa",
        "n"
      ],
      [
        "Ġ",
        "b"
      ],
      [
        "a",
        "r"
      ],
      [
        "Ġo",
        "f"
      ],
      [
        "Ġ",
        "d"
      ],
      [
        "in",
        "g"
      ],
      [
        "Ġ",
        "in"
      ],
      [
        "i",
        "on"
      ],
      [
        "Ġ",
        "m"
      ],
      [
        "-",
        "-"
      ],
      [
        "i",
        "c"
      ],
      [
        "o",
        "u"
      ],
      [
        "l",
        "e"
      ],
      [
        "a",
        "s"
      ],
      [
        "Ġan",
        "d"
      ],
      [
        "Ġt",
        "o"
      ],
      [
        "r",
        "o"
      ],
      [
        "en",
        "t"
      ],
      [
        "c",
        "t"
      ],
      [
        "Ġt",
        "h"
      ],
      [
        "Ġ",
        "h"
      ],
      [
        "Ġ",
        "e"
      ],
      [
        "Ġ",
        "re"
      ],
      [
        "e",
        "t"
      ],
      [
        "Ġ",
        "n"
      ],
      [
        "Ġ",
        "l"
      ],
      [
        "s",
        "t"
      ],
      [
        "e",
        "l"
      ],
      [
        "o",
        "m"
      ],
      [
        "i",
        "l"
      ],
      [
        "i",
        "d"
      ],
      [
        "i",
        "m"
      ],
      [
        "i",
        "g"
      ],
      [
        "Ġ",
        "("
      ],
      [
        "Ġ",
        "is"
      ],
      [
        "--",
        "--"
      ],
      [
        "č",
        "Ċ"
      ],
      [
        "o",
        "t"
      ],
      [
        "Ġ",
        "T"
      ],
      [
        "a",
        "m"
      ],
      [
        "Ġ",
        "g"
      ],
      [
        "v",
        "e"
      ],
      [
        "o",
        "l"
      ],
      [
        "u",
        "t"
      ],
      [
        "s",
        "e"
      ],
      [
        "at",
        "ion"
      ],
      [
        "a",
        "c"
      ],
      [
        "Ġ",
        "u"
      ],
      [
        "Ġ",
        "I"
      ],
      [
        "Ġf",
        "or"
      ],
      [
        "Ġ",
        "S"
      ],
      [
        "u",
        "r"
      ],
      [
        "l",
        "y"
      ],
      [
        "a",
        "d"
      ],
      [
        "o",
        "w"
      ],
      [
        "Ġb",
        "e"
      ],
      [
        "Ġ",
        "A"
      ],
      [
        "Ġ",
        "<"
      ],
      [
        "Ġth",
        "at"
      ],
      [
        "it",
        "h"
      ],
      [
        "u",
        "l"
      ],
      [
        "Ġ",
        "C"
      ],
      [
        "Ġ",
        "on"
      ],
      [
        "Ġs",
        "t"
      ],
      [
        "i",
        "f"
      ],
      [
        "Ġ",
        "1"
      ],
      [
        "c",
        "e"
      ],
      [
        "v",
        "er"
      ],
      [
        "Ġc",
        "on"
      ],
      [
        "Ġw",
        "ith"
      ],
      [
        "a",
        "y"
      ],
      [
        "i",
        "r"
      ],
      [
        "Ġd",
        "e"
      ],
      [
        "o",
        "d"
      ],
      [
        "Ġa",
        "s"
      ],
      [
        "a",
        "b"
      ],
      [
        "c",
        "h"
      ],
      [
        "Ġ",
        "y"
      ],
      [
        "Ġp",
        "ro"
      ],
      [
        "0",
        "0"
      ],
      [
        "o",
        "s"
      ],
      [
        "q",
        "u"
      ],
      [
        "Ġ",
        "$"
      ],
      [
        "Ġa",
        "l"
      ],
      [
        "t",
        "er"
      ],
      [
        "Ġ",
        "v"
      ],
      [
        "u",
        "m"
      ],
      [
        "r",
        "i"
      ],
      [
        "a",
        "g"
      ],
      [
        "p",
        "e"
      ],
      [
        "at",
        "e"
      ],
      [
        "n",
        "d"
      ],
      [
        "he",
        "r"
      ],
      [
        "Ġ",
        "P"
      ],
      [
        "Ġ",
        "M"
      ],
      [
        "re",
        "s"
      ],
      [
        "e",
        "re"
      ],
      [
        "=",
        "="
      ],
      [
        "Ġ",
        "it"
      ],
      [
        "Ġ",
        "\\"
      ],
      [
        "r",
        "a"
      ],
      [
        "Ġw",
        "h"
      ],
      [
        "e",
        "m"
      ],
      [
        "ĠT",
        "he"
      ],
      [
        "Ġ",
        "2"
      ],
      [
        "es",
        "t"
      ],
      [
        "Ġe",
        "x"
      ],
      [
        "p",
        "p"
      ],
      [
        "u",
        "s"
      ],
      [
        "----",
        "----"
      ],
      [
        "is",
        "t"
      ],
      [
        "an",
        "t"
      ],
      [
        "Ġ",
        "B"
      ],
      [
        "Ġc",
        "om"
      ],
      [
        "u",
        "n"
      ],
      [
        "h",
        "t"
      ],
      [
        "Ġo",
        "r"
      ],
      [
        "Ġb",
        "y"
      ],
      [
        "Ġs",
        "u"
      ],
      [
        "i",
        "v"
      ],
      [
        "t",
        "h"
      ],
      [
        "e",
        "ct"
      ],
      [
        "Ġ",
        "D"
      ],
      [
        "Ġ",
        "="
      ],
      [
        "Ġa",
        "re"
      ],
      [
        "Ġ",
        "r"
      ],
      [
        "m",
        "ent"
      ],
      [
        "es",
        "s"
      ],
      [
        "a",
        "in"
      ],
      [
        "Ġ",
        "he"
      ],
      [
        ".",
        "."
      ],
      [
        "o",
        "c"
      ],
      [
        "Ġw",
        "as"
      ],
      [
        "an",
        "d"
      ],
      [
        "Ġa",
        "t"
      ],
      [
        "er",
        "s"
      ],
      [
        "ro",
        "m"
      ],
      [
        "Ġ",
        "H"
      ],
      [
        "n",
        "t"
      ],
      [
        "Ġy",
        "ou"
      ],
      [
        "Ġ",
        "-"
      ],
      [
        "Ġs",
        "e"
      ],
      [
        "it",
        "y"
      ],
      [
        "Ġ",
        "F"
      ],
      [
        "p",
        "t"
      ],
      [
        "o",
        "re"
      ],
      [
        "en",
        "d"
      ],
      [
        "l",
        "d"
      ],
      [
        "Ġ",
        "L"
      ],
      [
        "Ġ",
        "W"
      ],
      [
        "Ġ",
        "R"
      ],
      [
        "E",
        "N"
      ],
      [
        "o",
        "p"
      ],
      [
        "i",
        "ve"
      ],
      [
        "il",
        "l"
      ],
      [
        "Ġn",
        "ot"
      ],
      [
        "k",
        "e"
      ],
      [
        "u",
        "d"
      ],
      [
        "Ġh",
        "a"
      ],
      [
        "*",
        "*"
      ],
      [
        "or",
        "t"
      ],
      [
        "Ġf",
        "rom"
      ],
      [
        "p",
        "l"
      ],
      [
        "Ġ",
        "N"
      ],
      [
        "Ġn",
        "e"
      ],
      [
        "Ġ",
        "\""
      ],
      [
        "ar",
        "t"
      ],
      [
        "el",
        "l"
      ],
      [
        "ig",
        "ht"
      ],
      [
        "u",
        "re"
      ],
      [
        "Ġth",
        "is"
      ],
      [
        "Ġ",
        "E"
      ],
      [
        "Ġs",
        "h"
      ],
      [
        "EN",
        "D"
      ],
      [
        "i",
        "al"
      ],
      [
        "Ġ",
        "0"
      ],
      [
        "{",
        "\\"
      ],
      [
        "ct",
        "ion"
      ],
      [
        "i",
        "es"
      ],
      [
        "at",
        "ed"
      ],
      [
        "Ġw",
        "e"
      ],
      [
        "Ġ",
        "G"
      ],
      [
        "Ġc",
        "h"
      ],
      [
        "in",
        "e"
      ],
      [
        "Ġ",
        "O"
      ],
      [
        "Ġ",
        "*"
      ],
      [
        "p",
        "er"
      ],
      [
        "ou",
        "r"
      ],
      [
        "al",
        "l"
      ],
      [
        "o",
        "g"
      ],
      [
        "u",
        "e"
      ],
      [
        "i",
        "z"
      ],
      [
        "ic",
        "h"
      ],
      [
        "Ġha",
        "ve"
      ],
      [
        ")",
        "."
      ],
      [
        "am",
        "e"
      ],
      [
        "f",
        "f"
      ],
      [
        "'",
        "s"
      ],
      [
        "g",
        "e"
      ],
      [
        "ab",
        "le"
      ],
      [
        "Ġ",
        "le"
      ],
      [
        "at",
        "h"
      ],
      [
        "ou",
        "ld"
      ],
      [
        "ic",
        "al"
      ],
      [
        "Ġu",
        "s"
      ],
      [
        "Ġc",
        "an"
      ],
      [
        "i",
        "b"
      ],
      [
        "Ġre",
        "s"
      ],
      [
        "Ġ",
        "3"
      ],
      [
        "Ġ",
        "k"
      ],
      [
        "Ġ",
        "en"
      ],
      [
        "t",
        "e"
      ],
      [
        "c",
        "l"
      ],
      [
        "u",
        "st"
      ],
      [
        "ag",
        "e"
      ],
      [
        "Ġcom",
        "p"
      ],
      [
        "ar",
        "d"
      ],
      [
        "ul",
        "t"
      ],
      [
        "r",
        "ou"
      ],
      [
        "Ġu",
        "n"
      ],
      [
        "a",
        "re"
      ],
      [
        "i",
        "e"
      ],
      [
        "t",
        "her"
      ],
      [
        "a",
        "ct"
      ],
      [
        "Ġt",
        "r"
      ],
      [
        "Ġ",
        "["
      ],
      [
        "Ġ",
        "im"
      ],
      [
        "==",
        "=="
      ],
      [
        "as",
        "e"
      ],
      [
        "o",
        "st"
      ],
      [
        "an",
        "s"
      ],
      [
        "p",
        "h"
      ],
      [
        "or",
        "m"
      ],
      [
        "Ġal",
        "l"
      ],
      [
        "Ġw",
        "he"
      ],
      [
        "Ġcon",
        "t"
      ],
      [
        "Ġc",
        "l"
      ],
      [
        "ac",
        "k"
      ],
      [
        "0",
        "1"
      ],
      [
        "Ġa",
        "d"
      ],
      [
        "Ġ",
        "{"
      ],
      [
        "Ġin",
        "t"
      ],
      [
        "Ġ",
        "qu"
      ],
      [
        "Ġm",
        "e"
      ],
      [
        "Ġ",
        "+"
      ],
      [
        "i",
        "re"
      ],
      [
        "om",
        "e"
      ],
      [
        "Ġp",
        "l"
      ],
      [
        "a",
        "p"
      ],
      [
        "Ġwh",
        "ich"
      ],
      [
        "ou",
        "s"
      ],
      [
        "Ġa",
        "b"
      ],
      [
        "/",
        "/"
      ],
      [
        "as",
        "s"
      ],
      [
        "ig",
        "n"
      ],
      [
        ")",
        ";"
      ],
      [
        "Ġ",
        "U"
      ],
      [
        "Ġw",
        "ere"
      ],
      [
        "Ġ",
        "j"
      ],
      [
        "in",
        "d"
      ],
      [
        "ou",
        "t"
      ],
      [
        "it",
        "ion"
      ],
      [
        "as",
        "t"
      ],
      [
        "a",
        "k"
      ],
      [
        "i",
        "p"
      ],
      [
        "c",
        "c"
      ],
      [
        "id",
        "e"
      ],
      [
        "d",
        "u"
      ],
      [
        "=",
        "\""
      ],
      [
        "--------",
        "--------"
      ],
      [
        "_",
        "{"
      ],
      [
        "a",
        "v"
      ],
      [
        "Ġ",
        "J"
      ],
      [
        "o",
        "k"
      ],
      [
        "en",
        "s"
      ],
      [
        "ĠI",
        "n"
      ],
      [
        "T",
        "he"
      ],
      [
        "u",
        "b"
      ],
      [
        "Ġd",
        "is"
      ],
      [
        "or",
        "d"
      ],
      [
        "}",
        "}"
      ],
      [
        "i",
        "le"
      ],
      [
        "in",
        "t"
      ],
      [
        "Ġd",
        "o"
      ],
      [
        "Ġ",
        "4"
      ],
      [
        "ar",
        "y"
      ],
      [
        "r",
        "u"
      ],
      [
        "en",
        "ce"
      ],
      [
        "on",
        "g"
      ],
      [
        "on",
        "e"
      ],
      [
        "ation",
        "s"
      ],
      [
        "res",
        "s"
      ],
      [
        "at",
        "a"
      ],
      [
        ")",
        ","
      ],
      [
        "o",
        "se"
      ],
      [
        "t",
        "y"
      ],
      [
        "Ġa",
        "r"
      ],
      [
        "im",
        "e"
      ],
      [
        "ic",
        "e"
      ],
      [
        "Ġp",
        "er"
      ],
      [
        "Ġh",
        "is"
      ],
      [
        "c",
        "on"
      ],
      [
        "ĠT",
        "h"
      ],
      [
        "Ġh",
        "as"
      ],
      [
        "i",
        "a"
      ],
      [
        "ent",
        "s"
      ],
      [
        "or",
        "y"
      ],
      [
        "x",
        "t"
      ],
      [
        "I",
        "C"
      ],
      [
        "ac",
        "e"
      ],
      [
        "m",
        "a"
      ],
      [
        "Ġp",
        "re"
      ],
      [
        "s",
        "o"
      ],
      [
        "Ġb",
        "ut"
      ],
      [
        "ion",
        "s"
      ],
      [
        "Ġ",
        "5"
      ],
      [
        "an",
        "ce"
      ],
      [
        "Ġ",
        "K"
      ],
      [
        "Ġon",
        "e"
      ],
      [
        "f",
        "orm"
      ],
      [
        "e",
        "p"
      ],
      [
        "or",
        "k"
      ],
      [
        "b",
        "er"
      ],
      [
        "an",
        "g"
      ],
      [
        "Ġa",
        "pp"
      ],
      [
        "ac",
        "h"
      ],
      [
        "g",
        "h"
      ],
      [
        "Ġw",
        "ill"
      ],
      [
        "Ġ",
        "if"
      ],
      [
        "if",
        "f"
      ],
      [
        "Ġ",
        "V"
      ],
      [
        "E",
        "P"
      ],
      [
        "a",
        "u"
      ],
      [
        "y",
        "s"
      ],
      [
        "or",
        "s"
      ],
      [
        "el",
        "y"
      ],
      [
        "c",
        "om"
      ],
      [
        "Ġ$",
        "\\"
      ],
      [
        "Ġe",
        "v"
      ],
      [
        "Ġs",
        "o"
      ],
      [
        "p",
        "ort"
      ],
      [
        "re",
        "f"
      ],
      [
        "al",
        "ly"
      ],
      [
        "m",
        "ath"
      ],
      [
        "Ġo",
        "b"
      ],
      [
        "ow",
        "n"
      ],
      [
        "EP",
        "IC"
      ],
      [
        "Ġthe",
        "ir"
      ],
      [
        "Ġo",
        "ut"
      ],
      [
        "Ġo",
        "ther"
      ],
      [
        "re",
        "at"
      ],
      [
        "Ġp",
        "art"
      ],
      [
        "j",
        "ect"
      ],
      [
        "f",
        "t"
      ],
      [
        "it",
        "e"
      ],
      [
        "if",
        "ic"
      ],
      [
        "Ġl",
        "a"
      ],
      [
        "v",
        "el"
      ],
      [
        "o",
        "ok"
      ],
      [
        "r",
        "y"
      ],
      [
        "Ġg",
        "o"
      ],
      [
        "Ġu",
        "p"
      ],
      [
        "l",
        "ic"
      ],
      [
        "Ġm",
        "an"
      ],
      [
        "..",
        ".."
      ],
      [
        "Ġn",
        "o"
      ],
      [
        "e",
        "ar"
      ],
      [
        "c",
        "re"
      ],
      [
        "ur",
        "n"
      ],
      [
        "e",
        "f"
      ],
      [
        "ou",
        "nd"
      ],
      [
        "ri",
        "b"
      ],
      [
        "Ġal",
        "so"
      ],
      [
        "n",
        "e"
      ],
      [
        "Ġ",
        "'"
      ],
      [
        "l",
        "ow"
      ],
      [
        "Ġd",
        "es"
      ],
      [
        "}",
        "$"
      ],
      [
        "Ġl",
        "i"
      ],
      [
        "Ġthe",
        "y"
      ],
      [
        "l",
        "l"
      ],
      [
        "re",
        "e"
      ],
      [
        "p",
        "le"
      ],
      [
        "Ġm",
        "ore"
      ],
      [
        "Ġa",
        "g"
      ],
      [
        "\\",
        "]"
      ],
      [
        "er",
        "v"
      ],
      [
        "1",
        "1"
      ],
      [
        "Ġs",
        "pe"
      ],
      [
        "[",
        "@"
      ],
      [
        "ou",
        "nt"
      ],
      [
        "c",
        "es"
      ],
      [
        "ver",
        "y"
      ],
      [
        "a",
        "il"
      ],
      [
        "Ġs",
        "p"
      ],
      [
        "Ġit",
        "s"
      ],
      [
        "er",
        "m"
      ],
      [
        "ĠS",
        "t"
      ],
      [
        "Ġ1",
        "9"
      ],
      [
        "Ġbe",
        "en"
      ],
      [
        "Ġyou",
        "r"
      ],
      [
        "w",
        "e"
      ],
      [
        "Ġg",
        "en"
      ],
      [
        "r",
        "ing"
      ],
      [
        "at",
        "es"
      ],
      [
        "is",
        "h"
      ],
      [
        "Ġthe",
        "re"
      ],
      [
        "Ġs",
        "y"
      ],
      [
        "le",
        "ct"
      ],
      [
        "Ġs",
        "c"
      ],
      [
        "ar",
        "i"
      ],
      [
        "nd",
        "er"
      ],
      [
        "ro",
        "w"
      ],
      [
        "et",
        "h"
      ],
      [
        "Ġm",
        "od"
      ],
      [
        "a",
        "ke"
      ],
      [
        "Ġin",
        "d"
      ],
      [
        "Ġh",
        "ad"
      ],
      [
        "l",
        "o"
      ],
      [
        "Ġd",
        "iff"
      ],
      [
        "Ġwh",
        "o"
      ],
      [
        "Ġa",
        "m"
      ],
      [
        "Ġan",
        "y"
      ],
      [
        "Ġ",
        "6"
      ],
      [
        "Ġas",
        "s"
      ],
      [
        "r",
        "ic"
      ],
      [
        "Ġwhe",
        "n"
      ],
      [
        "^",
        "{"
      ],
      [
        "Ġt",
        "e"
      ],
      [
        "i",
        "ed"
      ],
      [
        "Ġm",
        "y"
      ],
      [
        "il",
        "d"
      ],
      [
        "Ġv",
        "al"
      ],
      [
        "Ġsu",
        "b"
      ],
      [
        "ol",
        "d"
      ],
      [
        "1",
        "0"
      ],
      [
        "Ġ",
        "}"
      ],
      [
        "Ġin",
        "ter"
      ],
      [
        "E",
        "R"
      ],
      [
        "ver",
        "s"
      ],
      [
        "Ġt",
        "ime"
      ],
      [
        "Ġ",
        "&"
      ],
      [
        "w",
        "o"
      ],
      [
        "Ġb",
        "et"
      ],
      [
        "cl",
        "ud"
      ],
      [
        "1",
        "9"
      ],
      [
        "on",
        "s"
      ],
      [
        "h",
        "at"
      ],
      [
        "Ġa",
        "ct"
      ],
      [
        "1",
        "2"
      ],
      [
        "p",
        "s"
      ],
      [
        "Ġw",
        "ould"
      ],
      [
        "Ġm",
        "ay"
      ],
      [
        "Ġa",
        "cc"
      ],
      [
        "p",
        "ro"
      ],
      [
        "od",
        "e"
      ],
      [
        "at",
        "er"
      ],
      [
        "Ġcon",
        "s"
      ],
      [
        "i",
        "ent"
      ],
      [
        "Ġ",
        "."
      ],
      [
        "Ġ",
        "Y"
      ],
      [
        "f",
        "ter"
      ],
      [
        "c",
        "ed"
      ],
      [
        "Ġde",
        "f"
      ],
      [
        "Ġth",
        "an"
      ],
      [
        "ay",
        "s"
      ],
      [
        "Ġs",
        "a"
      ],
      [
        "ir",
        "st"
      ],
      [
        "Ġre",
        "g"
      ],
      [
        "Ġs",
        "ome"
      ],
      [
        "e",
        "x"
      ],
      [
        "Ġre",
        "l"
      ],
      [
        "Ġfor",
        "m"
      ],
      [
        "ul",
        "ar"
      ],
      [
        "E",
        "B"
      ],
      [
        "Ġ",
        "ro"
      ],
      [
        "er",
        "t"
      ],
      [
        "k",
        "s"
      ],
      [
        "Ġp",
        "os"
      ],
      [
        "I",
        "n"
      ],
      [
        "u",
        "al"
      ],
      [
        "Ġsu",
        "ch"
      ],
      [
        "o",
        "ve"
      ],
      [
        "on",
        "t"
      ],
      [
        "o",
        "v"
      ],
      [
        "Ġh",
        "ig"
      ],
      [
        "ing",
        "s"
      ],
      [
        "}",
        "\\"
      ],
      [
        "un",
        "ction"
      ],
      [
        "Ġo",
        "ver"
      ],
      [
        "is",
        "s"
      ],
      [
        "Ġf",
        "e"
      ],
      [
        "Ġre",
        "c"
      ],
      [
        "g",
        "et"
      ],
      [
        "Ġw",
        "ork"
      ],
      [
        "Ġtr",
        "ans"
      ],
      [
        "====",
        "===="
      ],
      [
        "at",
        "ive"
      ],
      [
        "Ġ\\",
        "["
      ],
      [
        "ĠI",
        "t"
      ],
      [
        "he",
        "d"
      ],
      [
        "re",
        "d"
      ],
      [
        "Ġe",
        "l"
      ],
      [
        "Ġne",
        "w"
      ],
      [
        "Ġk",
        "n"
      ],
      [
        "e",
        "c"
      ],
      [
        "W",
        "EB"
      ],
      [
        "Ġ",
        "7"
      ],
      [
        "Ġad",
        "d"
      ],
      [
        "Ġu",
        "nder"
      ],
      [
        ")",
        "{"
      ],
      [
        "ĠTh",
        "is"
      ],
      [
        "Ġp",
        "r"
      ],
      [
        "st",
        "em"
      ],
      [
        "Ġthe",
        "n"
      ],
      [
        "pe",
        "ct"
      ],
      [
        "Ġt",
        "wo"
      ],
      [
        "Ġint",
        "o"
      ],
      [
        "Ġab",
        "out"
      ],
      [
        "Ġcom",
        "m"
      ],
      [
        "Ġp",
        "ar"
      ],
      [
        "Ġthe",
        "se"
      ],
      [
        "Ġst",
        "ud"
      ],
      [
        "_",
        "_"
      ],
      [
        "Ġthe",
        "m"
      ],
      [
        "c",
        "ess"
      ],
      [
        "<",
        "/"
      ],
      [
        "Ġre",
        "t"
      ],
      [
        "Ġu",
        "se"
      ],
      [
        "on",
        "d"
      ],
      [
        "as",
        "ed"
      ],
      [
        "Ġd",
        "et"
      ],
      [
        "Ġp",
        "h"
      ],
      [
        "Ġon",
        "ly"
      ],
      [
        "Ġ",
        "her"
      ],
      [
        "Ġat",
        "t"
      ],
      [
        "Ġe",
        "ff"
      ],
      [
        "el",
        "f"
      ],
      [
        "Ġdiff",
        "ere"
      ],
      [
        "Ġ",
        "9"
      ],
      [
        "t",
        "he"
      ],
      [
        "g",
        "r"
      ],
      [
        "Ġe",
        "m"
      ],
      [
        "Ġs",
        "et"
      ],
      [
        "Ġli",
        "ke"
      ],
      [
        "Ġof",
        "f"
      ],
      [
        "Ġ",
        "8"
      ],
      [
        "Ġin",
        "v"
      ],
      [
        "le",
        "ment"
      ],
      [
        "au",
        "se"
      ],
      [
        "ty",
        "pe"
      ],
      [
        "]",
        "("
      ],
      [
        "ie",
        "w"
      ],
      [
        "at",
        "ing"
      ],
      [
        "Ġc",
        "ol"
      ],
      [
        "Ġp",
        "res"
      ],
      [
        "Ġbe",
        "c"
      ],
      [
        "it",
        "t"
      ],
      [
        "Ġpro",
        "v"
      ],
      [
        "Ġex",
        "p"
      ],
      [
        "ot",
        "h"
      ],
      [
        "ect",
        "ion"
      ],
      [
        "o",
        "b"
      ],
      [
        "#",
        "#"
      ],
      [
        "Ġc",
        "ell"
      ],
      [
        "Ġs",
        "ign"
      ],
      [
        "Ġres",
        "ult"
      ],
      [
        "we",
        "en"
      ],
      [
        "Ġf",
        "irst"
      ],
      [
        "\"",
        ","
      ],
      [
        "Ġo",
        "ur"
      ],
      [
        "Ġp",
        "at"
      ],
      [
        "f",
        "ig"
      ],
      [
        "Ġc",
        "o"
      ],
      [
        "in",
        "k"
      ],
      [
        "Ġ1",
        "0"
      ],
      [
        "ic",
        "k"
      ],
      [
        "ol",
        "og"
      ],
      [
        "o",
        "int"
      ],
      [
        "f",
        "r"
      ],
      [
        "pt",
        "ion"
      ],
      [
        "ol",
        "low"
      ],
      [
        "il",
        "ity"
      ],
      [
        ".",
        ","
      ],
      [
        "Ġ",
        "i"
      ],
      [
        "ar",
        "k"
      ],
      [
        "ad",
        "e"
      ],
      [
        "Ġwhe",
        "re"
      ],
      [
        "Ġbet",
        "ween"
      ],
      [
        "e",
        "g"
      ],
      [
        "Ġg",
        "et"
      ],
      [
        "ĠC",
        "h"
      ],
      [
        "Ġus",
        "ed"
      ],
      [
        "is",
        "e"
      ],
      [
        "l",
        "es"
      ],
      [
        "Ġd",
        "ata"
      ],
      [
        "c",
        "k"
      ],
      [
        "ut",
        "ion"
      ],
      [
        "s",
        "s"
      ],
      [
        "Ġspe",
        "c"
      ],
      [
        "i",
        "ous"
      ],
      [
        "'",
        "t"
      ],
      [
        "i",
        "an"
      ],
      [
        "oc",
        "k"
      ],
      [
        "ere",
        "d"
      ],
      [
        "Ġn",
        "um"
      ],
      [
        "Ġqu",
        "e"
      ],
      [
        "Ġwh",
        "at"
      ],
      [
        "Ġh",
        "ow"
      ],
      [
        "Ġ[",
        "@"
      ],
      [
        "en",
        "c"
      ],
      [
        "y",
        "pe"
      ],
      [
        "iz",
        "e"
      ],
      [
        "ĠW",
        "e"
      ],
      [
        "ib",
        "le"
      ],
      [
        "1",
        "3"
      ],
      [
        "i",
        "el"
      ],
      [
        "i",
        "x"
      ],
      [
        "r",
        "ight"
      ],
      [
        "Ġa",
        "c"
      ],
      [
        "2",
        "0"
      ],
      [
        "Ġsh",
        "ould"
      ],
      [
        "i",
        "o"
      ],
      [
        "Ġus",
        "ing"
      ],
      [
        "Ġh",
        "im"
      ],
      [
        "ru",
        "ct"
      ],
      [
        "Ġp",
        "e"
      ],
      [
        "Ġa",
        "fter"
      ],
      [
        "Ġf",
        "ollow"
      ],
      [
        "Ġre",
        "m"
      ],
      [
        "ter",
        "n"
      ],
      [
        "an",
        "ge"
      ],
      [
        "al",
        "s"
      ],
      [
        "Ġin",
        "clud"
      ],
      [
        "u",
        "p"
      ],
      [
        "Ġf",
        "unction"
      ],
      [
        "Ġy",
        "ear"
      ],
      [
        "Ġd",
        "ist"
      ],
      [
        "ic",
        "t"
      ],
      [
        "er",
        "r"
      ],
      [
        "Ġ",
        "est"
      ],
      [
        "he",
        "n"
      ],
      [
        "u",
        "res"
      ],
      [
        "f",
        "ul"
      ],
      [
        "\"",
        "}"
      ],
      [
        "Ġb",
        "l"
      ],
      [
        "Ġsh",
        "ow"
      ],
      [
        "Ġs",
        "im"
      ],
      [
        "u",
        "es"
      ],
      [
        "t",
        "r"
      ],
      [
        "Ġc",
        "or"
      ],
      [
        "d",
        "er"
      ],
      [
        "it",
        "s"
      ],
      [
        "1",
        "5"
      ],
      [
        "Ġsy",
        "stem"
      ],
      [
        "e",
        "ver"
      ],
      [
        ")",
        "$"
      ],
      [
        "Ġg",
        "rou"
      ],
      [
        "00",
        "0"
      ],
      [
        "Ġ2",
        "01"
      ],
      [
        "Ġne",
        "ed"
      ],
      [
        "Ġsu",
        "pp"
      ],
      [
        "our",
        "t"
      ],
      [
        "in",
        "ed"
      ],
      [
        "Ġre",
        "qu"
      ],
      [
        "Ġsa",
        "id"
      ],
      [
        "Ġpro",
        "b"
      ],
      [
        "Ġgen",
        "er"
      ],
      [
        "Ġ",
        "ent"
      ],
      [
        "o",
        "y"
      ],
      [
        "Ġcl",
        "ass"
      ],
      [
        "Ġp",
        "ol"
      ],
      [
        "ou",
        "gh"
      ],
      [
        "c",
        "al"
      ],
      [
        "p",
        "ut"
      ],
      [
        "en",
        "g"
      ],
      [
        "id",
        "ent"
      ],
      [
        "in",
        "s"
      ],
      [
        "Ġf",
        "act"
      ],
      [
        ".",
        "\""
      ],
      [
        "ate",
        "g"
      ],
      [
        ":",
        "//"
      ],
      [
        "w",
        "w"
      ],
      [
        "m",
        "s"
      ],
      [
        "Ġc",
        "ould"
      ],
      [
        "S",
        "t"
      ],
      [
        "ra",
        "ct"
      ],
      [
        "Ġin",
        "st"
      ],
      [
        "rou",
        "gh"
      ],
      [
        "r",
        "it"
      ],
      [
        "Ġpro",
        "du"
      ],
      [
        "iel",
        "d"
      ],
      [
        "Ġs",
        "ur"
      ],
      [
        "p",
        "os"
      ],
      [
        "he",
        "s"
      ],
      [
        "Ġhig",
        "h"
      ],
      [
        "Ġe",
        "ach"
      ],
      [
        "Ġv",
        "ari"
      ],
      [
        "ĠH",
        "e"
      ],
      [
        "in",
        "al"
      ],
      [
        "Ġ",
        "end"
      ],
      [
        "n",
        "ing"
      ],
      [
        "1",
        "4"
      ],
      [
        "(",
        ")"
      ],
      [
        "(",
        "\\"
      ],
      [
        "re",
        "n"
      ],
      [
        "t",
        "a"
      ],
      [
        "----------------",
        "----------------"
      ],
      [
        "ic",
        "s"
      ],
      [
        "Ġin",
        "f"
      ],
      [
        "Ġcon",
        "st"
      ],
      [
        "_",
        "{\\"
      ],
      [
        "Ġch",
        "ar"
      ],
      [
        "it",
        "ed"
      ],
      [
        "Ġ",
        "es"
      ],
      [
        "ul",
        "l"
      ],
      [
        "t",
        "o"
      ],
      [
        "a",
        "x"
      ],
      [
        "ĠU",
        "n"
      ],
      [
        "s",
        "p"
      ],
      [
        "Ġdiffere",
        "nt"
      ],
      [
        "ut",
        "e"
      ],
      [
        "1",
        "6"
      ],
      [
        "]",
        "{"
      ],
      [
        "Ġg",
        "r"
      ],
      [
        "Ġc",
        "ar"
      ],
      [
        "e",
        "v"
      ],
      [
        "Ġj",
        "ust"
      ],
      [
        "it",
        "ies"
      ],
      [
        "h",
        "ar"
      ],
      [
        "Ġs",
        "he"
      ],
      [
        "ur",
        "ing"
      ],
      [
        "Ġw",
        "ell"
      ],
      [
        "Ġre",
        "f"
      ],
      [
        "Ġret",
        "urn"
      ],
      [
        "Ġs",
        "m"
      ],
      [
        "ant",
        "s"
      ],
      [
        "o",
        "f"
      ],
      [
        "at",
        "or"
      ],
      [
        "ment",
        "s"
      ],
      [
        "u",
        "g"
      ],
      [
        "Ġeff",
        "ect"
      ],
      [
        "o",
        "x"
      ],
      [
        "ow",
        "er"
      ],
      [
        "iz",
        "ed"
      ],
      [
        "l",
        "ed"
      ],
      [
        "Ġth",
        "ose"
      ],
      [
        "ot",
        "her"
      ],
      [
        "](",
        "#"
      ],
      [
        "eth",
        "od"
      ],
      [
        "te",
        "xt"
      ],
      [
        "fr",
        "ac"
      ],
      [
        "Ġth",
        "rough"
      ],
      [
        "Ġd",
        "i"
      ],
      [
        "w",
        "n"
      ],
      [
        "]",
        ","
      ],
      [
        "Ġa",
        "p"
      ],
      [
        "y",
        "m"
      ],
      [
        "Ġex",
        "t"
      ],
      [
        "s",
        "h"
      ],
      [
        "ub",
        "lic"
      ],
      [
        "l",
        "i"
      ],
      [
        "Ġkn",
        "ow"
      ],
      [
        "Ġm",
        "ost"
      ],
      [
        "y",
        "p"
      ],
      [
        "U",
        "S"
      ],
      [
        "ĠA",
        "nd"
      ],
      [
        "u",
        "ch"
      ],
      [
        "Ġse",
        "e"
      ],
      [
        "ce",
        "pt"
      ],
      [
        "am",
        "ple"
      ],
      [
        "....",
        "...."
      ],
      [
        "u",
        "nd"
      ],
      [
        "Ġc",
        "ur"
      ],
      [
        "ical",
        "ly"
      ],
      [
        "r",
        "m"
      ],
      [
        "im",
        "es"
      ],
      [
        "Ġs",
        "er"
      ],
      [
        "Ġan",
        "al"
      ],
      [
        "Ġp",
        "ers"
      ],
      [
        "p",
        "ar"
      ],
      [
        "s",
        "c"
      ],
      [
        "Ġg",
        "reat"
      ],
      [
        "Ġc",
        "ase"
      ],
      [
        "u",
        "c"
      ],
      [
        "v",
        "al"
      ],
      [
        "1",
        "8"
      ],
      [
        "Ġ",
        ":"
      ],
      [
        "at",
        "ure"
      ],
      [
        "con",
        "d"
      ],
      [
        "ro",
        "l"
      ],
      [
        "o",
        "od"
      ],
      [
        ")",
        ")"
      ],
      [
        "Ġf",
        "l"
      ],
      [
        "n",
        "ce"
      ],
      [
        "m",
        "an"
      ],
      [
        "Ġin",
        "cre"
      ],
      [
        "I",
        "N"
      ],
      [
        "op",
        "le"
      ],
      [
        "1",
        "7"
      ],
      [
        "2",
        "2"
      ],
      [
        ">",
        "<"
      ],
      [
        "as",
        "es"
      ],
      [
        "t",
        "t"
      ],
      [
        "O",
        "N"
      ],
      [
        "i",
        "ents"
      ],
      [
        "..",
        "."
      ],
      [
        "Ġt",
        "est"
      ],
      [
        "er",
        "g"
      ],
      [
        "Ġmod",
        "el"
      ],
      [
        "Ġval",
        "ue"
      ],
      [
        "ar",
        "ch"
      ],
      [
        "Ġa",
        "ut"
      ],
      [
        "Ġs",
        "ol"
      ],
      [
        "w",
        "ard"
      ],
      [
        "Ġ",
        "ke"
      ],
      [
        "]",
        "\\]"
      ],
      [
        "re",
        "nt"
      ],
      [
        "Ġs",
        "ame"
      ],
      [
        "Ġb",
        "oth"
      ],
      [
        "-",
        ">"
      ],
      [
        "ain",
        "t"
      ],
      [
        "Ġ2",
        "00"
      ],
      [
        "p",
        "r"
      ],
      [
        "am",
        "b"
      ],
      [
        "um",
        "ent"
      ],
      [
        "}",
        "{"
      ],
      [
        "Ġm",
        "on"
      ],
      [
        "Ġst",
        "ate"
      ],
      [
        "v",
        "ent"
      ],
      [
        "Ġd",
        "id"
      ],
      [
        "Ġdo",
        "es"
      ],
      [
        "le",
        "t"
      ],
      [
        "Ġnum",
        "ber"
      ],
      [
        "s",
        "et"
      ],
      [
        "$",
        "\\"
      ],
      [
        "T",
        "h"
      ],
      [
        "ag",
        "es"
      ],
      [
        "in",
        "es"
      ],
      [
        "Ġbec",
        "ause"
      ],
      [
        "Ġl",
        "oc"
      ],
      [
        "Ġ",
        "Q"
      ],
      [
        ",",
        "\\"
      ],
      [
        "Ġpart",
        "ic"
      ],
      [
        "Ġ",
        "|"
      ],
      [
        "vel",
        "op"
      ],
      [
        "2",
        "5"
      ],
      [
        "Ġag",
        "ain"
      ],
      [
        "]{",
        "}"
      ],
      [
        "S",
        "S"
      ],
      [
        "Ġf",
        "il"
      ],
      [
        "Ġm",
        "in"
      ],
      [
        "Ġres",
        "p"
      ],
      [
        "Ġc",
        "all"
      ],
      [
        "re",
        "ad"
      ],
      [
        "ĠL",
        "et"
      ],
      [
        "Ġapp",
        "ro"
      ],
      [
        "Ġm",
        "at"
      ],
      [
        "rou",
        "nd"
      ],
      [
        "A",
        "I"
      ],
      [
        "**",
        "**"
      ],
      [
        "il",
        "y"
      ],
      [
        "oc",
        "i"
      ],
      [
        "Ġm",
        "ed"
      ],
      [
        "3",
        "0"
      ],
      [
        "Ġb",
        "ack"
      ],
      [
        "n",
        "g"
      ],
      [
        "v",
        "ing"
      ],
      [
        "Ġev",
        "en"
      ],
      [
        "ĠI",
        "f"
      ],
      [
        "ain",
        "ed"
      ],
      [
        "if",
        "ied"
      ],
      [
        "Ġ",
        "z"
      ],
      [
        "Ġb",
        "u"
      ],
      [
        "an",
        "c"
      ],
      [
        "ire",
        "ct"
      ],
      [
        "in",
        "ce"
      ],
      [
        "Ġre",
        "p"
      ],
      [
        "Ġ",
        "@"
      ],
      [
        "Ġ\\[",
        "[@"
      ],
      [
        "Ġr",
        "ight"
      ],
      [
        "Ġl",
        "ong"
      ],
      [
        "Ġex",
        "per"
      ],
      [
        "Ġe",
        "very"
      ],
      [
        "Ġd",
        "el"
      ],
      [
        "Ġm",
        "ethod"
      ],
      [
        "Ġf",
        "ind"
      ],
      [
        "r",
        "on"
      ],
      [
        "Ġpres",
        "ent"
      ],
      [
        "3",
        "2"
      ],
      [
        "Ġw",
        "or"
      ],
      [
        "i",
        "er"
      ],
      [
        "Ġman",
        "y"
      ],
      [
        "Ġp",
        "oint"
      ],
      [
        "if",
        "e"
      ],
      [
        "Ġg",
        "iv"
      ],
      [
        "C",
        "R"
      ],
      [
        "c",
        "ul"
      ],
      [
        "o",
        "ol"
      ],
      [
        "are",
        "d"
      ],
      [
        "v",
        "ed"
      ],
      [
        "ĠF",
        "or"
      ],
      [
        "ar",
        "g"
      ],
      [
        "ation",
        "al"
      ],
      [
        "math",
        "b"
      ],
      [
        "Ġpro",
        "cess"
      ],
      [
        "a",
        "pp"
      ],
      [
        "em",
        "ent"
      ],
      [
        "ateg",
        "ory"
      ],
      [
        "Ġ1",
        "2"
      ],
      [
        "ĠC",
        "om"
      ],
      [
        "f",
        "ore"
      ],
      [
        "Ġe",
        "qu"
      ],
      [
        "o",
        "id"
      ],
      [
        "Ġt",
        "ra"
      ],
      [
        "Ġ",
        "very"
      ],
      [
        "n",
        "ess"
      ],
      [
        "le",
        "ft"
      ],
      [
        "et",
        "a"
      ],
      [
        "Ġf",
        "ound"
      ],
      [
        "Ġbe",
        "ing"
      ],
      [
        "Ġm",
        "ake"
      ],
      [
        "A",
        "T"
      ],
      [
        "a",
        "ir"
      ],
      [
        "5",
        "0"
      ],
      [
        "Ġ",
        "/"
      ],
      [
        "form",
        "ation"
      ],
      [
        "o",
        "ver"
      ],
      [
        "Ġper",
        "form"
      ],
      [
        "ress",
        "ion"
      ],
      [
        "c",
        "ent"
      ],
      [
        "Ġe",
        "lement"
      ],
      [
        "Ġde",
        "p"
      ],
      [
        "Ġ",
        "x"
      ],
      [
        "Ġc",
        "he"
      ],
      [
        "re",
        "t"
      ],
      [
        "a",
        "h"
      ],
      [
        "m",
        "er"
      ],
      [
        "ign",
        "ed"
      ],
      [
        "Ġo",
        "p"
      ],
      [
        "Ġpe",
        "ople"
      ],
      [
        "Ġpos",
        "s"
      ],
      [
        "iv",
        "ely"
      ],
      [
        "e",
        "e"
      ],
      [
        "Ġ",
        "//"
      ],
      [
        "od",
        "y"
      ],
      [
        "Ġw",
        "ay"
      ],
      [
        "e",
        "w"
      ],
      [
        "Ġm",
        "em"
      ],
      [
        "Ġstud",
        "y"
      ],
      [
        "ire",
        "d"
      ],
      [
        "Ġn",
        "ame"
      ],
      [
        "u",
        "pp"
      ],
      [
        "y",
        "l"
      ],
      [
        "ĠA",
        "s"
      ],
      [
        "Ġcell",
        "s"
      ],
      [
        "Ġt",
        "ri"
      ],
      [
        "Ġe",
        "t"
      ],
      [
        "Ġde",
        "c"
      ],
      [
        "$",
        ","
      ],
      [
        "Ġde",
        "velop"
      ],
      [
        "l",
        "ine"
      ],
      [
        "Ġar",
        "t"
      ],
      [
        "$",
        "."
      ],
      [
        "a",
        "j"
      ],
      [
        "u",
        "ed"
      ],
      [
        "2",
        "00"
      ],
      [
        "2",
        "01"
      ],
      [
        "at",
        "ic"
      ],
      [
        "at",
        "t"
      ],
      [
        "Ġwh",
        "ile"
      ],
      [
        "Ġdis",
        "c"
      ],
      [
        "ri",
        "pt"
      ],
      [
        "Ġn",
        "ow"
      ],
      [
        "r",
        "t"
      ],
      [
        "'",
        ","
      ],
      [
        "Ġwith",
        "out"
      ],
      [
        "ĠA",
        "l"
      ],
      [
        "A",
        "R"
      ],
      [
        "ic",
        "es"
      ],
      [
        "Ġim",
        "port"
      ],
      [
        "Ġt",
        "erm"
      ],
      [
        "Ġc",
        "ourt"
      ],
      [
        "Ġb",
        "el"
      ],
      [
        "Ġle",
        "vel"
      ],
      [
        "Ġbe",
        "fore"
      ],
      [
        "Ġl",
        "os"
      ],
      [
        "ĠH",
        "ow"
      ],
      [
        "is",
        "m"
      ],
      [
        "Ġh",
        "and"
      ],
      [
        "N",
        "A"
      ],
      [
        "Ġdes",
        "c"
      ],
      [
        "4",
        "0"
      ],
      [
        "\"",
        ">"
      ],
      [
        "Ġc",
        "re"
      ],
      [
        "ph",
        "a"
      ],
      [
        "a",
        "ve"
      ],
      [
        "iz",
        "ation"
      ],
      [
        "Ġcons",
        "id"
      ],
      [
        "Ġyear",
        "s"
      ],
      [
        "al",
        "e"
      ],
      [
        "Ġan",
        "t"
      ],
      [
        "act",
        "er"
      ],
      [
        "Ġs",
        "erv"
      ],
      [
        "r",
        "ay"
      ],
      [
        "Ġin",
        "s"
      ],
      [
        "Ġhe",
        "re"
      ],
      [
        "al",
        "th"
      ],
      [
        "ĠP",
        "ro"
      ],
      [
        "Ġor",
        "der"
      ],
      [
        "Ġhe",
        "l"
      ],
      [
        "w",
        "ay"
      ],
      [
        "Ġl",
        "ook"
      ],
      [
        "ar",
        "s"
      ],
      [
        "n",
        "ot"
      ],
      [
        "as",
        "on"
      ],
      [
        "Ġpl",
        "ay"
      ],
      [
        "gr",
        "am"
      ],
      [
        "d",
        "ition"
      ],
      [
        "m",
        "in"
      ],
      [
        "en",
        "se"
      ],
      [
        "Ġf",
        "r"
      ],
      [
        "Ġn",
        "on"
      ],
      [
        "al",
        "ity"
      ],
      [
        "Ġre",
        "ad"
      ],
      [
        "Ġm",
        "ade"
      ],
      [
        "ĠA",
        "n"
      ],
      [
        "o",
        "le"
      ],
      [
        "S",
        "T"
      ],
      [
        "Ġth",
        "ou"
      ],
      [
        "US",
        "ER"
      ],
      [
        "ak",
        "ing"
      ],
      [
        "g",
        "an"
      ],
      [
        "Ġg",
        "u"
      ],
      [
        "Ġ",
        "ra"
      ],
      [
        "ab",
        "el"
      ],
      [
        "Ġgo",
        "od"
      ],
      [
        "n",
        "er"
      ],
      [
        "Ġd",
        "own"
      ],
      [
        "g",
        "ht"
      ],
      [
        "ra",
        "ph"
      ],
      [
        "t",
        "ing"
      ],
      [
        "an",
        "k"
      ],
      [
        "Ġse",
        "cond"
      ],
      [
        "00",
        "00"
      ],
      [
        "Ġth",
        "ree"
      ],
      [
        "Ġ",
        "err"
      ],
      [
        "\"",
        ":"
      ],
      [
        "Ġpat",
        "ients"
      ],
      [
        "Ġw",
        "ant"
      ],
      [
        "m",
        "ed"
      ],
      [
        "Ġprov",
        "id"
      ],
      [
        "Ġo",
        "wn"
      ],
      [
        "v",
        "en"
      ],
      [
        "Ġpro",
        "per"
      ],
      [
        "Ġsign",
        "ific"
      ],
      [
        "is",
        "ion"
      ],
      [
        "Ġact",
        "iv"
      ],
      [
        "Ġsupp",
        "ort"
      ],
      [
        "w",
        "ork"
      ],
      [
        "if",
        "y"
      ],
      [
        "Ġst",
        "r"
      ],
      [
        "Ġl",
        "ine"
      ],
      [
        "ent",
        "ial"
      ],
      [
        "Ġt",
        "ype"
      ],
      [
        "Ġo",
        "per"
      ],
      [
        ":",
        ":"
      ],
      [
        "d",
        "a"
      ],
      [
        "0",
        "2"
      ],
      [
        "Ġ1",
        "8"
      ],
      [
        "b",
        "r"
      ],
      [
        "Ġa",
        "v"
      ],
      [
        "g",
        "g"
      ],
      [
        "C",
        "ategory"
      ],
      [
        "ction",
        "s"
      ],
      [
        "Ġe",
        "ar"
      ],
      [
        "Ġpers",
        "on"
      ],
      [
        "Ġd",
        "uring"
      ],
      [
        "Ġm",
        "ust"
      ],
      [
        "ir",
        "c"
      ],
      [
        "our",
        "ce"
      ],
      [
        "n",
        "ame"
      ],
      [
        "iv",
        "id"
      ],
      [
        "Ġde",
        "v"
      ],
      [
        "Ġob",
        "ject"
      ],
      [
        "Ġm",
        "et"
      ],
      [
        "M",
        "L"
      ],
      [
        "(",
        "-"
      ],
      [
        "s",
        "erv"
      ],
      [
        "3",
        "4"
      ],
      [
        "--",
        "-"
      ],
      [
        "u",
        "ally"
      ],
      [
        "Ġm",
        "uch"
      ],
      [
        "Ġm",
        "ight"
      ],
      [
        "Ġcont",
        "rol"
      ],
      [
        "c",
        "er"
      ],
      [
        "enc",
        "y"
      ],
      [
        "F",
        "ig"
      ],
      [
        "al",
        "pha"
      ],
      [
        "m",
        "on"
      ],
      [
        "ul",
        "ation"
      ],
      [
        "Ġl",
        "ist"
      ],
      [
        "an",
        "y"
      ],
      [
        "(",
        "\""
      ],
      [
        "Ġ",
        "X"
      ],
      [
        "Ġl",
        "o"
      ],
      [
        "ab",
        "ility"
      ],
      [
        "Ġst",
        "art"
      ],
      [
        "l",
        "ess"
      ],
      [
        "us",
        "s"
      ],
      [
        "2",
        "4"
      ],
      [
        "ch",
        "n"
      ],
      [
        "math",
        "cal"
      ],
      [
        "m",
        "e"
      ],
      [
        "n",
        "s"
      ],
      [
        "Ġs",
        "l"
      ],
      [
        "at",
        "her"
      ],
      [
        "Ġex",
        "pl"
      ],
      [
        "ag",
        "n"
      ],
      [
        "}",
        "("
      ],
      [
        "m",
        "b"
      ],
      [
        "har",
        "ata"
      ],
      [
        "v",
        "iew"
      ],
      [
        "Ġe",
        "lect"
      ],
      [
        "Ġprob",
        "le"
      ],
      [
        "v",
        "ious"
      ],
      [
        "ys",
        "is"
      ],
      [
        "ot",
        "s"
      ],
      [
        "O",
        "R"
      ],
      [
        "en",
        "er"
      ],
      [
        "Ġfollow",
        "ing"
      ],
      [
        "e",
        "ad"
      ],
      [
        "st",
        "r"
      ],
      [
        "Ġcon",
        "f"
      ],
      [
        "Ġc",
        "a"
      ],
      [
        "Ġme",
        "as"
      ],
      [
        "am",
        "p"
      ],
      [
        "Ġp",
        "ur"
      ],
      [
        "Ġsm",
        "all"
      ],
      [
        "3",
        "3"
      ],
      [
        "Ġgrou",
        "p"
      ],
      [
        "u",
        "se"
      ],
      [
        "ion",
        "al"
      ],
      [
        "Ġp",
        "ublic"
      ],
      [
        "an",
        "e"
      ],
      [
        "Ġp",
        "ri"
      ],
      [
        "ĠP",
        "ar"
      ],
      [
        "Ġap",
        "pe"
      ],
      [
        "Ġm",
        "ult"
      ],
      [
        "it",
        "ive"
      ],
      [
        "as",
        "h"
      ],
      [
        "^",
        "{\\"
      ],
      [
        "Ġs",
        "on"
      ],
      [
        "Ġre",
        "port"
      ],
      [
        "Ġa",
        "ff"
      ],
      [
        ")",
        "\\"
      ],
      [
        "I",
        "T"
      ],
      [
        "6",
        "4"
      ],
      [
        "Ġin",
        "formation"
      ],
      [
        "8",
        "0"
      ],
      [
        "Ġc",
        "ount"
      ],
      [
        "Ġresult",
        "s"
      ],
      [
        "ect",
        "ed"
      ],
      [
        "is",
        "hed"
      ],
      [
        "Ġf",
        "ile"
      ],
      [
        "Ġ2",
        "0"
      ],
      [
        "t",
        "on"
      ],
      [
        "9",
        "9"
      ],
      [
        "id",
        "ence"
      ],
      [
        "ar",
        "ge"
      ],
      [
        "Ġhel",
        "p"
      ],
      [
        "ain",
        "s"
      ],
      [
        "Ġdet",
        "erm"
      ],
      [
        "i",
        "or"
      ],
      [
        "Ġ",
        "ident"
      ],
      [
        "Ġl",
        "im"
      ],
      [
        "Ġsignific",
        "ant"
      ],
      [
        "Ġst",
        "ruct"
      ],
      [
        "Ġh",
        "um"
      ],
      [
        "Ġt",
        "em"
      ],
      [
        "Ġr",
        "un"
      ],
      [
        "]",
        "."
      ],
      [
        "ur",
        "ther"
      ],
      [
        "qu",
        "e"
      ],
      [
        "pe",
        "c"
      ],
      [
        "du",
        "ct"
      ],
      [
        "Ġ1",
        "5"
      ],
      [
        "an",
        "n"
      ],
      [
        "ĠI",
        "nd"
      ],
      [
        "e",
        "xt"
      ],
      [
        "Ġd",
        "irect"
      ],
      [
        "ater",
        "ial"
      ],
      [
        "ter",
        "s"
      ],
      [
        "ric",
        "t"
      ],
      [
        "3",
        "5"
      ],
      [
        "Ġw",
        "r"
      ],
      [
        "ist",
        "s"
      ],
      [
        "in",
        "ation"
      ],
      [
        "f",
        "or"
      ],
      [
        "am",
        "es"
      ],
      [
        "ent",
        "ion"
      ],
      [
        "oc",
        "ument"
      ],
      [
        "E",
        "x"
      ],
      [
        "Ġob",
        "t"
      ],
      [
        "L",
        "et"
      ],
      [
        "Ġex",
        "ample"
      ],
      [
        "Ġcur",
        "rent"
      ],
      [
        "2",
        "7"
      ],
      [
        "Ġle",
        "ad"
      ],
      [
        "Ġ",
        "**"
      ],
      [
        "ro",
        "ss"
      ],
      [
        "ere",
        "st"
      ],
      [
        "Ġ",
        "ed"
      ],
      [
        "Ġun",
        "a"
      ],
      [
        "A",
        "L"
      ],
      [
        "Ġc",
        "al"
      ],
      [
        "Ġle",
        "t"
      ],
      [
        "h",
        "o"
      ],
      [
        "a",
        "z"
      ],
      [
        "g",
        "er"
      ],
      [
        "Ġst",
        "and"
      ],
      [
        "le",
        "ar"
      ],
      [
        "Ġcont",
        "in"
      ],
      [
        "ur",
        "al"
      ],
      [
        "Ġgiv",
        "en"
      ],
      [
        "res",
        "ent"
      ],
      [
        "y",
        "n"
      ],
      [
        "Ġin",
        "c"
      ],
      [
        "d",
        "ef"
      ],
      [
        "le",
        "x"
      ],
      [
        "olog",
        "y"
      ],
      [
        "Ġth",
        "ink"
      ],
      [
        "Ġt",
        "reat"
      ],
      [
        "Ġpro",
        "gram"
      ],
      [
        "ot",
        "e"
      ],
      [
        "6",
        "0"
      ],
      [
        "Ġpro",
        "t"
      ],
      [
        "Ġre",
        "du"
      ],
      [
        "Ġwith",
        "in"
      ],
      [
        "Ġres",
        "pect"
      ],
      [
        "Ġbe",
        "h"
      ],
      [
        "Ġqu",
        "est"
      ],
      [
        "m",
        "iss"
      ],
      [
        "f",
        "ace"
      ],
      [
        "Ġc",
        "ent"
      ],
      [
        "Ġwor",
        "ld"
      ],
      [
        "]\\]",
        "."
      ],
      [
        "Ġch",
        "ild"
      ],
      [
        "Ġcon",
        "dition"
      ],
      [
        "W",
        "hat"
      ],
      [
        "i",
        "ence"
      ],
      [
        "Ġp",
        "ost"
      ],
      [
        "Ġall",
        "ow"
      ],
      [
        "l",
        "and"
      ],
      [
        "s",
        "elf"
      ],
      [
        "Ġ{",
        "#"
      ],
      [
        "ord",
        "s"
      ],
      [
        "i",
        "um"
      ],
      [
        "ĠY",
        "ou"
      ],
      [
        "ab",
        "harata"
      ],
      [
        "d",
        "e"
      ],
      [
        "il",
        "ar"
      ],
      [
        "am",
        "et"
      ],
      [
        "h",
        "ip"
      ],
      [
        "b",
        "e"
      ],
      [
        "Ġst",
        "at"
      ],
      [
        "Ġadd",
        "ition"
      ],
      [
        "Ġ",
        "_"
      ],
      [
        "amb",
        "da"
      ],
      [
        "a",
        "im"
      ],
      [
        "Ġim",
        "p"
      ],
      [
        "r",
        "al"
      ],
      [
        "Ġf",
        "ield"
      ],
      [
        "iv",
        "ed"
      ],
      [
        "I",
        "I"
      ],
      [
        "am",
        "s"
      ],
      [
        "Ġpro",
        "te"
      ],
      [
        "rib",
        "ut"
      ],
      [
        "u",
        "le"
      ],
      [
        "ou",
        "se"
      ],
      [
        "Ġu",
        "nt"
      ],
      [
        "T",
        "ML"
      ],
      [
        "0",
        "5"
      ],
      [
        "Ġd",
        "ay"
      ],
      [
        "i",
        "k"
      ],
      [
        "Ġis",
        "s"
      ],
      [
        "A",
        "N"
      ],
      [
        "Ġob",
        "serv"
      ],
      [
        "it",
        "her"
      ],
      [
        "2",
        "8"
      ],
      [
        "b",
        "ook"
      ],
      [
        "o",
        "ot"
      ],
      [
        "y",
        "t"
      ],
      [
        "ord",
        "ing"
      ],
      [
        "d",
        "ay"
      ],
      [
        "Ġre",
        "al"
      ],
      [
        "Ġ1",
        "4"
      ],
      [
        "Ġc",
        "ou"
      ],
      [
        "Ġl",
        "ife"
      ],
      [
        "ĠHow",
        "ever"
      ],
      [
        "ur",
        "y"
      ],
      [
        "Ġo",
        "cc"
      ],
      [
        "Ġp",
        "ower"
      ],
      [
        "an",
        "a"
      ],
      [
        "Ġst",
        "ill"
      ],
      [
        "or",
        "n"
      ],
      [
        "I",
        "t"
      ],
      [
        "re",
        "g"
      ],
      [
        "Ġ$",
        "$\\"
      ],
      [
        "C",
        "T"
      ],
      [
        "Ġ",
        "ve"
      ],
      [
        "at",
        "ely"
      ],
      [
        "Ġs",
        "ay"
      ],
      [
        "v",
        "es"
      ],
      [
        "Ġimport",
        "ant"
      ],
      [
        "E",
        "S"
      ],
      [
        "Ġind",
        "ic"
      ],
      [
        "Ġs",
        "om"
      ],
      [
        "Ġp",
        "ass"
      ],
      [
        "2",
        "6"
      ],
      [
        "r",
        "ation"
      ],
      [
        "========",
        "========"
      ],
      [
        "o",
        "h"
      ],
      [
        "Ġre",
        "st"
      ],
      [
        "ure",
        "d"
      ],
      [
        "Ġ",
        "Z"
      ],
      [
        "Ġapp",
        "lic"
      ],
      [
        "Ġf",
        "in"
      ],
      [
        "v",
        "a"
      ],
      [
        "Ġcor",
        "re"
      ],
      [
        "l",
        "ish"
      ],
      [
        "Ġs",
        "ing"
      ],
      [
        "ain",
        "ing"
      ],
      [
        "3",
        "7"
      ],
      [
        "W",
        "e"
      ],
      [
        "Ġt",
        "ake"
      ],
      [
        "ht",
        "t"
      ],
      [
        "Ġass",
        "oci"
      ],
      [
        "u",
        "ro"
      ],
      [
        "eng",
        "th"
      ],
      [
        "w",
        "ays"
      ],
      [
        "et",
        "s"
      ],
      [
        "Ġpar",
        "a"
      ],
      [
        "Ġagain",
        "st"
      ],
      [
        "se",
        "c"
      ],
      [
        "Ġc",
        "ap"
      ],
      [
        "ĠW",
        "hat"
      ],
      [
        "ent",
        "ly"
      ],
      [
        "Ġre",
        "ce"
      ],
      [
        "Ġl",
        "ast"
      ],
      [
        "Ġ",
        ","
      ],
      [
        "ref",
        "ore"
      ],
      [
        "0",
        "4"
      ],
      [
        "3",
        "6"
      ],
      [
        "Ġha",
        "ving"
      ],
      [
        "Ġb",
        "re"
      ],
      [
        "at",
        "ch"
      ],
      [
        "P",
        "ro"
      ],
      [
        "it",
        "al"
      ],
      [
        "end",
        "s"
      ],
      [
        "2",
        "9"
      ],
      [
        "__",
        "__"
      ],
      [
        "ĠA",
        "d"
      ],
      [
        "on",
        "se"
      ],
      [
        "Ġb",
        "as"
      ],
      [
        "Ġk",
        "ing"
      ],
      [
        "Ġp",
        "ot"
      ],
      [
        "Ġf",
        "am"
      ],
      [
        "erg",
        "y"
      ],
      [
        "Ġan",
        "other"
      ],
      [
        "el",
        "ta"
      ],
      [
        "m",
        "l"
      ],
      [
        "ic",
        "ro"
      ],
      [
        "Ġm",
        "ot"
      ],
      [
        "l",
        "u"
      ],
      [
        "Ġb",
        "est"
      ],
      [
        "Ġch",
        "ang"
      ],
      [
        "ĠS",
        "e"
      ],
      [
        "in",
        "f"
      ],
      [
        "ĠB",
        "ut"
      ],
      [
        "Ġte",
        "chn"
      ],
      [
        "ak",
        "es"
      ],
      [
        "Ġb",
        "ased"
      ],
      [
        "ĠN",
        "o"
      ],
      [
        "in",
        "c"
      ],
      [
        "ĠA",
        "r"
      ],
      [
        "pl",
        "ic"
      ],
      [
        "ial",
        "ly"
      ],
      [
        "i",
        "vers"
      ],
      [
        "3",
        "8"
      ],
      [
        "a",
        "w"
      ],
      [
        "Ġd",
        "er"
      ],
      [
        "Ġo",
        "pt"
      ],
      [
        "Ġ1",
        "6"
      ],
      [
        "E",
        "D"
      ],
      [
        "Ġp",
        "op"
      ],
      [
        "i",
        "en"
      ],
      [
        "$",
        "$"
      ],
      [
        "ro",
        "ll"
      ],
      [
        "Ġl",
        "ow"
      ],
      [
        "Ġanal",
        "ysis"
      ],
      [
        "ol",
        "y"
      ],
      [
        "Ġt",
        "yp"
      ],
      [
        "ĠD",
        "e"
      ],
      [
        "(",
        ");"
      ],
      [
        "st",
        "and"
      ],
      [
        "Ġchar",
        "acter"
      ],
      [
        ")",
        "}"
      ],
      [
        "Ġinclud",
        "ing"
      ],
      [
        "am",
        "ma"
      ],
      [
        "lo",
        "ad"
      ],
      [
        "Th",
        "is"
      ],
      [
        "in",
        "ing"
      ],
      [
        "pl",
        "oy"
      ],
      [
        "A",
        "S"
      ],
      [
        "Ġc",
        "are"
      ],
      [
        "3",
        "9"
      ],
      [
        "Ġc",
        "ode"
      ],
      [
        "Ġhe",
        "ad"
      ],
      [
        "Ġre",
        "le"
      ],
      [
        "Ġdesc",
        "rib"
      ],
      [
        "ack",
        "age"
      ],
      [
        "ar",
        "get"
      ],
      [
        "Ġv",
        "is"
      ],
      [
        "pl",
        "es"
      ],
      [
        "Ġm",
        "ark"
      ],
      [
        "p",
        "one"
      ],
      [
        "Ġme",
        "an"
      ],
      [
        "l",
        "ation"
      ],
      [
        "Ġint",
        "erest"
      ],
      [
        "Ġop",
        "en"
      ],
      [
        "Ġm",
        "en"
      ],
      [
        "he",
        "re"
      ],
      [
        "Ġl",
        "arge"
      ],
      [
        "Ġs",
        "ince"
      ],
      [
        "E",
        "T"
      ],
      [
        "el",
        "s"
      ],
      [
        "at",
        "s"
      ],
      [
        "ff",
        "ic"
      ],
      [
        "w",
        "are"
      ],
      [
        "et",
        "ic"
      ],
      [
        "ific",
        "ation"
      ],
      [
        "mathb",
        "b"
      ],
      [
        "2",
        "1"
      ],
      [
        "ig",
        "ma"
      ],
      [
        "b",
        "ers"
      ],
      [
        ")",
        "/"
      ],
      [
        "em",
        "s"
      ],
      [
        "ir",
        "d"
      ],
      [
        "Ġar",
        "g"
      ],
      [
        "5",
        "5"
      ],
      [
        "Ġp",
        "ath"
      ],
      [
        "ĠC",
        "l"
      ],
      [
        "are",
        "nt"
      ],
      [
        "Ġh",
        "tt"
      ],
      [
        "Ġad",
        "v"
      ],
      [
        "\\",
        "["
      ],
      [
        "n",
        "a"
      ],
      [
        "st",
        "ring"
      ],
      [
        "in",
        "ess"
      ],
      [
        "er",
        "y"
      ],
      [
        "al",
        "k"
      ],
      [
        "C",
        "on"
      ],
      [
        "iv",
        "es"
      ],
      [
        "re",
        "qu"
      ],
      [
        "m",
        "u"
      ],
      [
        "g",
        "en"
      ],
      [
        "o",
        "pe"
      ],
      [
        "##",
        "##"
      ],
      [
        "Ġcon",
        "n"
      ],
      [
        "l",
        "abel"
      ],
      [
        "h",
        "ib"
      ],
      [
        "Ġprodu",
        "ct"
      ],
      [
        "Ġ1",
        "7"
      ],
      [
        "t",
        "s"
      ],
      [
        "Ġ",
        "{\\"
      ],
      [
        "4",
        "4"
      ],
      [
        "ere",
        "nce"
      ],
      [
        "er",
        "ing"
      ],
      [
        "Ġ*",
        "/"
      ],
      [
        ",",
        "\""
      ],
      [
        "Ġs",
        "k"
      ],
      [
        "s",
        "er"
      ],
      [
        "Ġl",
        "ight"
      ],
      [
        "Ġpartic",
        "ular"
      ],
      [
        "al",
        "se"
      ],
      [
        "Ġ",
        "#"
      ],
      [
        "Ġla",
        "w"
      ],
      [
        "Ġs",
        "elf"
      ],
      [
        "cc",
        "ess"
      ],
      [
        "b",
        "l"
      ],
      [
        "ic",
        "a"
      ],
      [
        "ĠW",
        "h"
      ],
      [
        "Ġcomm",
        "un"
      ],
      [
        "Ġd",
        "on"
      ],
      [
        "ert",
        "ain"
      ],
      [
        "b",
        "y"
      ],
      [
        "p",
        "or"
      ],
      [
        "h",
        "or"
      ],
      [
        "vers",
        "ion"
      ],
      [
        "ad",
        "o"
      ],
      [
        "ĠN",
        "ew"
      ],
      [
        "ab",
        "ly"
      ],
      [
        "Ġrep",
        "resent"
      ],
      [
        "le",
        "ction"
      ],
      [
        "=",
        "\\"
      ],
      [
        "Ġpro",
        "f"
      ],
      [
        "p",
        "i"
      ],
      [
        "m",
        "un"
      ],
      [
        "T",
        "o"
      ],
      [
        "ĠE",
        "x"
      ],
      [
        "e",
        "k"
      ],
      [
        "ww",
        "w"
      ],
      [
        "Ġh",
        "y"
      ],
      [
        "a",
        "ult"
      ],
      [
        "p",
        "art"
      ],
      [
        "an",
        "ces"
      ],
      [
        "end",
        "ed"
      ],
      [
        "Ġab",
        "ove"
      ],
      [
        "er",
        "n"
      ],
      [
        "Ġl",
        "ess"
      ],
      [
        "Ġb",
        "ro"
      ],
      [
        "ot",
        "t"
      ],
      [
        "(",
        "'"
      ],
      [
        "Ġ19",
        "9"
      ],
      [
        "Ġsu",
        "gg"
      ],
      [
        "Ġb",
        "r"
      ],
      [
        "ig",
        "h"
      ],
      [
        "Ġsugg",
        "est"
      ],
      [
        "Ġd",
        "ue"
      ],
      [
        "ver",
        "t"
      ],
      [
        "ĠThe",
        "re"
      ],
      [
        "Ġw",
        "ar"
      ],
      [
        "ad",
        "d"
      ],
      [
        "Ġinv",
        "est"
      ],
      [
        "av",
        "a"
      ],
      [
        "Ġkn",
        "own"
      ],
      [
        "}",
        ","
      ],
      [
        "Ġup",
        "on"
      ],
      [
        "........",
        "........"
      ],
      [
        "Ġh",
        "ist"
      ],
      [
        "et",
        "y"
      ],
      [
        "c",
        "ur"
      ],
      [
        "Ġf",
        "ore"
      ],
      [
        "ep",
        "end"
      ],
      [
        "b",
        "s"
      ],
      [
        "os",
        "ed"
      ],
      [
        "2",
        "3"
      ],
      [
        "ress",
        "ed"
      ],
      [
        "ĠR",
        "e"
      ],
      [
        "b",
        "le"
      ],
      [
        "ĠThe",
        "y"
      ],
      [
        "as",
        "k"
      ],
      [
        "in",
        "a"
      ],
      [
        "A",
        "nd"
      ],
      [
        "f",
        "er"
      ],
      [
        "Ġto",
        "p"
      ],
      [
        "Ġg",
        "l"
      ],
      [
        "Ġ<",
        "/"
      ],
      [
        "Ġim",
        "pro"
      ],
      [
        "H",
        "TML"
      ],
      [
        "ph",
        "i"
      ],
      [
        "i",
        "od"
      ],
      [
        "A",
        "C"
      ],
      [
        ".",
        "-"
      ],
      [
        "orm",
        "al"
      ],
      [
        "Ġsim",
        "ilar"
      ],
      [
        "Ġhe",
        "alth"
      ],
      [
        "op",
        "y"
      ],
      [
        "Ġtr",
        "y"
      ],
      [
        "R",
        "E"
      ],
      [
        "ĠT",
        "r"
      ],
      [
        "1",
        "00"
      ],
      [
        "Ġf",
        "our"
      ],
      [
        "Ġproble",
        "m"
      ],
      [
        "ĠS",
        "ection"
      ],
      [
        "Ġcall",
        "ed"
      ],
      [
        "Ġf",
        "ail"
      ],
      [
        "con",
        "t"
      ],
      [
        "}",
        "_"
      ],
      [
        "Ġne",
        "ver"
      ],
      [
        "eg",
        "in"
      ],
      [
        "Ġcomm",
        "on"
      ],
      [
        "d",
        "ict"
      ],
      [
        "Ġtr",
        "ue"
      ],
      [
        "is",
        "ed"
      ],
      [
        "Ġb",
        "o"
      ],
      [
        "Ġprov",
        "ide"
      ],
      [
        "Ġs",
        "ize"
      ],
      [
        "Ġs",
        "it"
      ],
      [
        "h",
        "a"
      ],
      [
        "Ġposs",
        "ible"
      ],
      [
        "Ġcl",
        "aim"
      ],
      [
        "I",
        "D"
      ],
      [
        "Ġhum",
        "an"
      ],
      [
        "un",
        "g"
      ],
      [
        "Ġre",
        "se"
      ],
      [
        "am",
        "ent"
      ],
      [
        "Ġc",
        "r"
      ],
      [
        "Ġb",
        "i"
      ],
      [
        "Ġexp",
        "ression"
      ],
      [
        "7",
        "7"
      ],
      [
        "ĠC",
        "on"
      ],
      [
        "ad",
        "a"
      ],
      [
        "Ġch",
        "ange"
      ],
      [
        "ver",
        "se"
      ],
      [
        "ep",
        "s"
      ],
      [
        "Ġpl",
        "ace"
      ],
      [
        "Ġwhe",
        "ther"
      ],
      [
        "Ġv",
        "iew"
      ],
      [
        "Ġa",
        "round"
      ],
      [
        "Ġin",
        "it"
      ],
      [
        "ĠI",
        "s"
      ],
      [
        "ĠA",
        "pp"
      ],
      [
        "Ġen",
        "ergy"
      ],
      [
        "a",
        "ction"
      ],
      [
        "Ġsh",
        "own"
      ],
      [
        "Ġinv",
        "ol"
      ],
      [
        "4",
        "5"
      ],
      [
        "m",
        "at"
      ],
      [
        "v",
        "ir"
      ],
      [
        "Ġg",
        "row"
      ],
      [
        "ĠS",
        "c"
      ],
      [
        "Ġtreat",
        "ment"
      ],
      [
        "L",
        "E"
      ],
      [
        "Ġd",
        "en"
      ],
      [
        "us",
        "ion"
      ],
      [
        "n",
        "ces"
      ],
      [
        "Ġor",
        "ig"
      ],
      [
        "C",
        "SS"
      ],
      [
        "Ġne",
        "xt"
      ],
      [
        "Ġcom",
        "b"
      ],
      [
        "un",
        "c"
      ],
      [
        "res",
        "p"
      ],
      [
        "}",
        "^{"
      ],
      [
        "ĠThe",
        "se"
      ],
      [
        "pl",
        "ay"
      ],
      [
        "ac",
        "in"
      ],
      [
        "un",
        "t"
      ],
      [
        "Ġav",
        "ail"
      ],
      [
        "Ġval",
        "ues"
      ],
      [
        "v",
        "ar"
      ],
      [
        "al",
        "igned"
      ],
      [
        "ĠP",
        "h"
      ],
      [
        "ĠT",
        "o"
      ],
      [
        "im",
        "al"
      ],
      [
        "Ġerr",
        "or"
      ],
      [
        "l",
        "ambda"
      ],
      [
        "op",
        "er"
      ],
      [
        "Ġd",
        "ri"
      ],
      [
        "us",
        "ed"
      ],
      [
        "Ġpos",
        "ition"
      ],
      [
        "im",
        "ent"
      ],
      [
        "6",
        "9"
      ],
      [
        "A",
        "s"
      ],
      [
        "Ġus",
        "er"
      ],
      [
        "a",
        "ut"
      ],
      [
        ">",
        "</"
      ],
      [
        "Ġte",
        "xt"
      ],
      [
        "q",
        "rt"
      ],
      [
        "Ġo",
        "ld"
      ],
      [
        "Ġr",
        "ad"
      ],
      [
        "Ġse",
        "ver"
      ],
      [
        "ch",
        "ool"
      ],
      [
        "ĠO",
        "n"
      ],
      [
        "Ġb",
        "us"
      ],
      [
        "Ġex",
        "ist"
      ],
      [
        "c",
        "ol"
      ],
      [
        "et",
        "work"
      ],
      [
        "Ġspec",
        "ific"
      ],
      [
        "4",
        "8"
      ],
      [
        "ac",
        "es"
      ],
      [
        "Ġind",
        "ivid"
      ],
      [
        "b",
        "egin"
      ],
      [
        "Ġin",
        "te"
      ],
      [
        ".",
        "'"
      ],
      [
        "Ġt",
        "re"
      ],
      [
        "Ġloc",
        "al"
      ],
      [
        "Ġgener",
        "al"
      ],
      [
        "ip",
        "le"
      ],
      [
        "Ġam",
        "ong"
      ],
      [
        "id",
        "th"
      ],
      [
        "Ġev",
        "idence"
      ],
      [
        "Ġs",
        "um"
      ],
      [
        "ce",
        "ed"
      ],
      [
        "d",
        "ata"
      ],
      [
        "o",
        "res"
      ],
      [
        "Ġr",
        "is"
      ],
      [
        "}",
        "_{"
      ],
      [
        "Ġsing",
        "le"
      ],
      [
        "ĠP",
        "l"
      ],
      [
        "le",
        "g"
      ],
      [
        "Ġv",
        "ol"
      ],
      [
        "Ġc",
        "irc"
      ],
      [
        "Ġme",
        "ans"
      ],
      [
        "Ġfe",
        "w"
      ],
      [
        "Ġto",
        "t"
      ],
      [
        "olog",
        "ical"
      ],
      [
        "it",
        "or"
      ],
      [
        "Ġpre",
        "vious"
      ],
      [
        "Ġe",
        "as"
      ],
      [
        "s",
        "um"
      ],
      [
        "Ġ1",
        "1"
      ],
      [
        "th",
        "ing"
      ],
      [
        "Ġha",
        "pp"
      ],
      [
        "Ġconsid",
        "er"
      ],
      [
        "HTML",
        "CSS"
      ],
      [
        "er",
        "c"
      ],
      [
        "Ġs",
        "w"
      ],
      [
        "g",
        "o"
      ],
      [
        "Ġre",
        "ason"
      ],
      [
        "}$",
        "$"
      ],
      [
        "Ġ3",
        "0"
      ],
      [
        "Ġse",
        "qu"
      ],
      [
        "Ġto",
        "o"
      ],
      [
        "Ġle",
        "ft"
      ],
      [
        "Ġw",
        "ater"
      ],
      [
        "id",
        "es"
      ],
      [
        "Ġg",
        "ive"
      ],
      [
        "Ġ",
        "ut"
      ],
      [
        "Ġmon",
        "th"
      ],
      [
        "end",
        "ing"
      ],
      [
        "Ġd",
        "ays"
      ],
      [
        "Ġal",
        "ways"
      ],
      [
        "Ġv",
        "ir"
      ],
      [
        "l",
        "ing"
      ],
      [
        "Ġpro",
        "m"
      ],
      [
        "ro",
        "p"
      ],
      [
        "Ġex",
        "pect"
      ],
      [
        "Ġen",
        "c"
      ],
      [
        "ang",
        "le"
      ],
      [
        "s",
        "w"
      ],
      [
        "Ġke",
        "y"
      ],
      [
        "Ġsu",
        "per"
      ],
      [
        "]",
        ";"
      ],
      [
        "Ġm",
        "ain"
      ],
      [
        "e",
        "qu"
      ],
      [
        "'",
        "m"
      ],
      [
        "ĠA",
        "ll"
      ],
      [
        "en",
        "e"
      ],
      [
        "7",
        "5"
      ],
      [
        "Ġpot",
        "ential"
      ],
      [
        "book",
        "s"
      ],
      [
        "C",
        "l"
      ],
      [
        "rib",
        "ute"
      ],
      [
        "Ġm",
        "aterial"
      ],
      [
        "Ġhow",
        "ever"
      ],
      [
        ")",
        ":"
      ],
      [
        "Ġ",
        "--"
      ],
      [
        "m",
        "ost"
      ],
      [
        "e",
        "ed"
      ],
      [
        "Ġst",
        "ring"
      ],
      [
        "Ġle",
        "g"
      ],
      [
        "itt",
        "le"
      ],
      [
        "S",
        "C"
      ],
      [
        "Ġs",
        "ens"
      ],
      [
        "Ġ",
        ">"
      ],
      [
        "b",
        "eta"
      ],
      [
        "Ġle",
        "ar"
      ],
      [
        "Ġl",
        "as"
      ],
      [
        "Ġ",
        "ide"
      ],
      [
        "Ġp",
        "a"
      ],
      [
        "Ġf",
        "urther"
      ],
      [
        "Ġf",
        "ree"
      ],
      [
        "ĠS",
        "h"
      ],
      [
        "ra",
        "in"
      ],
      [
        "eth",
        "ing"
      ],
      [
        "Ġpro",
        "ject"
      ],
      [
        "i",
        "j"
      ],
      [
        "ra",
        "p"
      ],
      [
        "****",
        "****"
      ],
      [
        "Ġth",
        "y"
      ],
      [
        "t",
        "en"
      ],
      [
        "ĠS",
        "o"
      ],
      [
        "7",
        "0"
      ],
      [
        "ĠA",
        "mer"
      ],
      [
        "ic",
        "le"
      ],
      [
        "Ġbu",
        "ild"
      ],
      [
        "Ġ1",
        "3"
      ],
      [
        "Ġindivid",
        "ual"
      ],
      [
        "Ġ",
        "!"
      ],
      [
        "om",
        "en"
      ],
      [
        "H",
        "E"
      ],
      [
        "Ġ",
        "=="
      ],
      [
        "d",
        "d"
      ],
      [
        "se",
        "qu"
      ],
      [
        "Ġph",
        "ys"
      ],
      [
        "Ġe",
        "ither"
      ],
      [
        "b",
        "ack"
      ],
      [
        "ar",
        "ing"
      ],
      [
        "6",
        "5"
      ],
      [
        "og",
        "raph"
      ],
      [
        "C",
        "om"
      ],
      [
        "or",
        "g"
      ],
      [
        "ap",
        "s"
      ],
      [
        "Ġor",
        "gan"
      ],
      [
        "Ġpr",
        "im"
      ],
      [
        "Ġbet",
        "ter"
      ],
      [
        "ma",
        "h"
      ],
      [
        "e",
        "y"
      ],
      [
        "8",
        "8"
      ],
      [
        "}",
        "^"
      ],
      [
        "Ġse",
        "lect"
      ],
      [
        "Ġpar",
        "amet"
      ],
      [
        "Ġper",
        "iod"
      ],
      [
        "h",
        "oly"
      ],
      [
        "ind",
        "ow"
      ],
      [
        "Ġsub",
        "ject"
      ],
      [
        "Ġc",
        "ases"
      ],
      [
        "c",
        "he"
      ],
      [
        "Ġm",
        "ov"
      ],
      [
        "s",
        "on"
      ],
      [
        "Ġt",
        "urn"
      ],
      [
        "Ġquest",
        "ion"
      ],
      [
        "Ġb",
        "ody"
      ],
      [
        "holy",
        "books"
      ],
      [
        "ac",
        "y"
      ],
      [
        "9",
        "5"
      ],
      [
        "mah",
        "abharata"
      ],
      [
        "l",
        "er"
      ],
      [
        "m",
        "it"
      ],
      [
        "Ġavail",
        "able"
      ],
      [
        "-",
        "\\"
      ],
      [
        "ret",
        "urn"
      ],
      [
        "A",
        "P"
      ],
      [
        "s",
        "ub"
      ],
      [
        ";",
        "}"
      ],
      [
        "Ġhig",
        "her"
      ],
      [
        "`",
        "`"
      ],
      [
        "Ġd",
        "r"
      ],
      [
        "Ġsever",
        "al"
      ],
      [
        "Ġ",
        "čĊ"
      ],
      [
        "ra",
        "w"
      ],
      [
        "b",
        "ar"
      ],
      [
        "Ġ(",
        "["
      ],
      [
        "th",
        "ough"
      ],
      [
        "ĠC",
        "ourt"
      ],
      [
        "t",
        "able"
      ],
      [
        "um",
        "e"
      ],
      [
        "Ġel",
        "se"
      ],
      [
        "Ġdis",
        "e"
      ],
      [
        "Ġstand",
        "ard"
      ],
      [
        "Ġ2",
        "5"
      ],
      [
        "re",
        "am"
      ],
      [
        "Ġs",
        "ide"
      ],
      [
        "c",
        "d"
      ],
      [
        "Ġen",
        "g"
      ],
      [
        "F",
        "or"
      ],
      [
        "Ġunder",
        "stand"
      ],
      [
        "L",
        "L"
      ],
      [
        "ĠI",
        "m"
      ],
      [
        "Ġcont",
        "ent"
      ],
      [
        "Ġp",
        "ort"
      ],
      [
        "ch",
        "an"
      ],
      [
        "Ġj",
        "ud"
      ],
      [
        "Ġassoci",
        "ated"
      ],
      [
        "Ġstud",
        "ies"
      ],
      [
        "Ġem",
        "ploy"
      ],
      [
        "aj",
        "or"
      ],
      [
        "d",
        "iv"
      ],
      [
        "ĠUn",
        "ited"
      ],
      [
        "Ġc",
        "lear"
      ],
      [
        "ar",
        "m"
      ],
      [
        "ang",
        "u"
      ],
      [
        "ĠW",
        "hen"
      ],
      [
        "6",
        "7"
      ],
      [
        "Ġ$",
        "{\\"
      ],
      [
        "am",
        "ples"
      ],
      [
        "Ġev",
        "ent"
      ],
      [
        "Ġas",
        "k"
      ],
      [
        "Ġc",
        "reat"
      ],
      [
        "Ġle",
        "ast"
      ],
      [
        "Ġ1",
        "00"
      ],
      [
        "A",
        "M"
      ],
      [
        "Ġp",
        "ut"
      ],
      [
        "Ġreg",
        "ard"
      ],
      [
        "Ġhtt",
        "p"
      ],
      [
        "h",
        "y"
      ],
      [
        "Ġcomp",
        "ut"
      ],
      [
        "Ġh",
        "ome"
      ],
      [
        "lo",
        "b"
      ],
      [
        "Ġab",
        "s"
      ],
      [
        "Ġgo",
        "ing"
      ],
      [
        "p",
        "ackage"
      ],
      [
        "ri",
        "ption"
      ],
      [
        "O",
        "M"
      ],
      [
        "ust",
        "om"
      ],
      [
        "Ġc",
        "ost"
      ],
      [
        "ĠThe",
        "n"
      ],
      [
        "y",
        "stem"
      ],
      [
        "Ġth",
        "us"
      ],
      [
        "our",
        "s"
      ],
      [
        "Ġpl",
        "an"
      ],
      [
        "Ġre",
        "view"
      ],
      [
        "Ġ",
        "%"
      ],
      [
        "al",
        "es"
      ],
      [
        "Ġacc",
        "ess"
      ],
      [
        "6",
        "8"
      ],
      [
        "I",
        "S"
      ],
      [
        "f",
        "ile"
      ],
      [
        "n",
        "al"
      ],
      [
        "T",
        "r"
      ],
      [
        "tr",
        "ans"
      ],
      [
        "il",
        "on"
      ],
      [
        "y",
        "le"
      ],
      [
        "and",
        "s"
      ],
      [
        "Ġdes",
        "ign"
      ],
      [
        "Ġ2",
        "4"
      ],
      [
        "ab",
        "les"
      ],
      [
        "Ġ",
        ")"
      ],
      [
        "Ġp",
        "ract"
      ],
      [
        "Ġcom",
        "e"
      ],
      [
        "miss",
        "ion"
      ],
      [
        "Ġocc",
        "ur"
      ],
      [
        "Ġl",
        "ay"
      ],
      [
        "Ġt",
        "arget"
      ],
      [
        "N",
        "ame"
      ],
      [
        "Ġre",
        "ally"
      ],
      [
        "Ġsom",
        "ething"
      ],
      [
        "upp",
        "ose"
      ],
      [
        "mathb",
        "f"
      ],
      [
        "ke",
        "y"
      ],
      [
        "ĠSt",
        "ates"
      ],
      [
        "Ġm",
        "ass"
      ],
      [
        "ĠA",
        "t"
      ],
      [
        "Ġm",
        "us"
      ],
      [
        "Ġl",
        "ittle"
      ],
      [
        "s",
        "igma"
      ],
      [
        "Ġne",
        "g"
      ],
      [
        "iv",
        "ity"
      ],
      [
        "if",
        "t"
      ],
      [
        "itt",
        "ed"
      ],
      [
        "Ġbel",
        "ie"
      ],
      [
        "es",
        "c"
      ],
      [
        "ore",
        "d"
      ],
      [
        "Ġr",
        "ate"
      ],
      [
        "ol",
        "ution"
      ],
      [
        "Ġlevel",
        "s"
      ],
      [
        "ne",
        "w"
      ],
      [
        "Ġresp",
        "onse"
      ],
      [
        "ĠC",
        "ol"
      ],
      [
        "m",
        "od"
      ],
      [
        "rou",
        "p"
      ],
      [
        "Ġth",
        "ings"
      ],
      [
        "9",
        "0"
      ],
      [
        "Ġb",
        "en"
      ],
      [
        "Ġtot",
        "al"
      ],
      [
        "ĠPar",
        "va"
      ],
      [
        "ĠU",
        "S"
      ],
      [
        "n",
        "c"
      ],
      [
        "Ġm",
        "icro"
      ],
      [
        "Ġgo",
        "ver"
      ],
      [
        "Ġt",
        "imes"
      ],
      [
        "iv",
        "ing"
      ],
      [
        "id",
        "d"
      ],
      [
        "I",
        "d"
      ],
      [
        "Ġa",
        "ction"
      ],
      [
        "Ġk",
        "ind"
      ],
      [
        "Ġo",
        "pp"
      ],
      [
        "Ġr",
        "ange"
      ],
      [
        "Ġab",
        "le"
      ],
      [
        "e",
        "q"
      ],
      [
        "it",
        "ing"
      ],
      [
        "ce",
        "ption"
      ],
      [
        "clud",
        "e"
      ],
      [
        "_",
        "\\"
      ],
      [
        "ra",
        "h"
      ],
      [
        "l",
        "ished"
      ],
      [
        "3",
        "1"
      ],
      [
        "is",
        "on"
      ],
      [
        "at",
        "ures"
      ],
      [
        "Ġare",
        "a"
      ],
      [
        "b",
        "ib"
      ],
      [
        "St",
        "ring"
      ],
      [
        "}",
        ")"
      ],
      [
        "u",
        "it"
      ],
      [
        "c",
        "o"
      ],
      [
        "r",
        "r"
      ],
      [
        "A",
        "D"
      ],
      [
        "Ġrequ",
        "ire"
      ],
      [
        "^{",
        "-"
      ],
      [
        "g",
        "a"
      ],
      [
        "Ġf",
        "ull"
      ],
      [
        "Ġim",
        "age"
      ],
      [
        "resp",
        "ond"
      ],
      [
        "s",
        "qrt"
      ],
      [
        "our",
        "se"
      ],
      [
        "Ġw",
        "ords"
      ],
      [
        "vir",
        "on"
      ],
      [
        "ro",
        "id"
      ],
      [
        "Ġc",
        "ertain"
      ],
      [
        "Ġ",
        "id"
      ],
      [
        "\"",
        ")"
      ],
      [
        "Ġp",
        "o"
      ],
      [
        "u",
        "f"
      ],
      [
        "Ġf",
        "ri"
      ],
      [
        "ĠR",
        "es"
      ],
      [
        "om",
        "et"
      ],
      [
        "Ġsu",
        "ccess"
      ],
      [
        "9",
        "7"
      ],
      [
        "Ġli",
        "k"
      ],
      [
        "Ġex",
        "c"
      ],
      [
        "Ġcomp",
        "lex"
      ],
      [
        "Ġs",
        "at"
      ],
      [
        "Ġd",
        "om"
      ],
      [
        "rib",
        "ution"
      ],
      [
        "Ġch",
        "o"
      ],
      [
        "T",
        "ype"
      ],
      [
        "Ġa",
        "way"
      ],
      [
        "Ġ(",
        "[@"
      ],
      [
        "i",
        "que"
      ],
      [
        "Ġcomp",
        "ared"
      ],
      [
        "Ġtri",
        "al"
      ],
      [
        "l",
        "og"
      ],
      [
        "os",
        "is"
      ],
      [
        "ens",
        "ion"
      ],
      [
        "Ġfl",
        "u"
      ],
      [
        "att",
        "le"
      ],
      [
        "]",
        ")."
      ],
      [
        "ri",
        "x"
      ],
      [
        "ĠF",
        "r"
      ],
      [
        "Ġcomp",
        "on"
      ],
      [
        "Ġh",
        "ard"
      ],
      [
        "Ġs",
        "ource"
      ],
      [
        "Ġsp",
        "ace"
      ],
      [
        "Ġ",
        "ver"
      ],
      [
        "Ġsh",
        "ort"
      ],
      [
        "us",
        "h"
      ],
      [
        "I",
        "P"
      ],
      [
        "Ġdevelop",
        "ment"
      ],
      [
        "ak",
        "en"
      ],
      [
        "id",
        "ad"
      ],
      [
        "Ġp",
        "le"
      ],
      [
        "Ġinclud",
        "e"
      ],
      [
        "Ġrequ",
        "ired"
      ],
      [
        "Ġs",
        "ent"
      ],
      [
        "Ġu",
        "nd"
      ],
      [
        "\"}",
        ")."
      ],
      [
        "Ġprote",
        "in"
      ],
      [
        "Ġn",
        "etwork"
      ],
      [
        "8",
        "5"
      ],
      [
        "e",
        "b"
      ],
      [
        "os",
        "p"
      ],
      [
        "i",
        "ation"
      ],
      [
        "Ġche",
        "ck"
      ],
      [
        "ess",
        "age"
      ],
      [
        "C",
        "h"
      ],
      [
        "I",
        "f"
      ],
      [
        "em",
        "ber"
      ],
      [
        "aint",
        "iff"
      ],
      [
        "Ġperform",
        "ed"
      ],
      [
        "Ġactiv",
        "ity"
      ],
      [
        "ri",
        "es"
      ],
      [
        "Ġre",
        "pl"
      ],
      [
        "Ġstr",
        "ong"
      ],
      [
        "ĠTh",
        "at"
      ],
      [
        "Ġa",
        "ge"
      ],
      [
        "in",
        "ter"
      ],
      [
        "a",
        "f"
      ],
      [
        "Ġam",
        "ount"
      ],
      [
        "ward",
        "s"
      ],
      [
        "Ġl",
        "ower"
      ],
      [
        "as",
        "ing"
      ],
      [
        "it",
        "le"
      ],
      [
        "ro",
        "s"
      ],
      [
        "Ġl",
        "og"
      ],
      [
        "Ġobserv",
        "ed"
      ],
      [
        "R",
        "es"
      ],
      [
        "A",
        "G"
      ],
      [
        "Ġal",
        "ong"
      ],
      [
        "Ġcal",
        "cul"
      ],
      [
        "al",
        "u"
      ],
      [
        "read",
        "y"
      ],
      [
        "iv",
        "al"
      ],
      [
        "Ġdisc",
        "uss"
      ],
      [
        "Ġterm",
        "s"
      ],
      [
        "Ġme",
        "chan"
      ],
      [
        "at",
        "ter"
      ],
      [
        "cl",
        "ass"
      ],
      [
        "ib",
        "ility"
      ],
      [
        "og",
        "n"
      ],
      [
        "4",
        "7"
      ],
      [
        "Ġsh",
        "all"
      ],
      [
        "M",
        "D"
      ],
      [
        "Ġc",
        "rit"
      ],
      [
        "ic",
        "i"
      ],
      [
        "Ġrec",
        "ord"
      ],
      [
        "Ġal",
        "g"
      ],
      [
        "Ġgrou",
        "ps"
      ],
      [
        "g",
        "amma"
      ],
      [
        "Ġl",
        "ater"
      ],
      [
        "a",
        "pe"
      ],
      [
        "Ġobt",
        "ained"
      ],
      [
        "Ġcondition",
        "s"
      ],
      [
        "Ġmeas",
        "ure"
      ],
      [
        "use",
        "package"
      ],
      [
        "O",
        "T"
      ],
      [
        "0",
        "3"
      ],
      [
        "{",
        "{\\"
      ],
      [
        "lo",
        "od"
      ],
      [
        "Ġf",
        "requ"
      ],
      [
        "u",
        "ff"
      ],
      [
        "Ġph",
        "ot"
      ],
      [
        "Ġse",
        "par"
      ],
      [
        "Ġtem",
        "per"
      ],
      [
        "C",
        "C"
      ],
      [
        "Ġne",
        "cess"
      ],
      [
        "ro",
        "du"
      ],
      [
        "Ġfact",
        "ors"
      ],
      [
        "I",
        "ON"
      ],
      [
        "er",
        "o"
      ],
      [
        "at",
        "ors"
      ],
      [
        "Ġg",
        "ame"
      ],
      [
        "Ġof",
        "ten"
      ],
      [
        "ic",
        "an"
      ],
      [
        "Ġh",
        "old"
      ],
      [
        "Ġeffect",
        "s"
      ],
      [
        "ar",
        "c"
      ],
      [
        "Ġqu",
        "ant"
      ],
      [
        "ĠC",
        "al"
      ],
      [
        "Ġ",
        "`"
      ],
      [
        "Ġchang",
        "es"
      ],
      [
        "p",
        "ri"
      ],
      [
        "ver",
        "age"
      ],
      [
        "t",
        "ies"
      ],
      [
        "ild",
        "e"
      ],
      [
        "w",
        "h"
      ],
      [
        "Ġunt",
        "il"
      ],
      [
        "6",
        "6"
      ],
      [
        "oc",
        "ial"
      ],
      [
        "Ġfam",
        "ily"
      ],
      [
        "ĠS",
        "p"
      ],
      [
        "Ġf",
        "inal"
      ],
      [
        "val",
        "ue"
      ],
      [
        "A",
        "l"
      ],
      [
        "I",
        "G"
      ],
      [
        "4",
        "9"
      ],
      [
        "o",
        "pt"
      ],
      [
        "Ġp",
        "or"
      ],
      [
        "Ġcor",
        "respond"
      ],
      [
        "Ġdet",
        "ail"
      ],
      [
        ")",
        "("
      ],
      [
        "Ġchild",
        "ren"
      ],
      [
        "Ġdescrib",
        "ed"
      ],
      [
        "Ġm",
        "ajor"
      ],
      [
        "Ġcon",
        "duct"
      ],
      [
        "Ġinvest",
        "ig"
      ],
      [
        "ar",
        "row"
      ],
      [
        "Ġd",
        "ou"
      ],
      [
        "c",
        "ript"
      ],
      [
        "0",
        "8"
      ],
      [
        "h",
        "old"
      ],
      [
        "Ġs",
        "ection"
      ],
      [
        "Ġf",
        "low"
      ],
      [
        "Ġcre",
        "ate"
      ],
      [
        "ĠP",
        "r"
      ],
      [
        "b",
        "re"
      ],
      [
        "Ġincre",
        "ased"
      ],
      [
        "em",
        "pt"
      ],
      [
        "Ġdef",
        "end"
      ],
      [
        "Ġsign",
        "al"
      ],
      [
        "Ġstruct",
        "ure"
      ],
      [
        "Ġd",
        "at"
      ],
      [
        "o",
        "o"
      ],
      [
        "Ġl",
        "arg"
      ],
      [
        "Ġb",
        "ook"
      ],
      [
        "Ġgover",
        "n"
      ],
      [
        "Ġm",
        "agn"
      ],
      [
        "Ġvari",
        "ous"
      ],
      [
        "m",
        "m"
      ],
      [
        "as",
        "ter"
      ],
      [
        "Ġthe",
        "e"
      ],
      [
        "ivers",
        "ity"
      ],
      [
        "Ġcan",
        "not"
      ],
      [
        "Ġsystem",
        "s"
      ],
      [
        "Ġsu",
        "re"
      ],
      [
        "Ġe",
        "y"
      ],
      [
        "th",
        "is"
      ],
      [
        "Ġest",
        "im"
      ],
      [
        "pp",
        "ed"
      ],
      [
        "ul",
        "es"
      ],
      [
        "ar",
        "ri"
      ],
      [
        "Ġv",
        "i"
      ],
      [
        "ne",
        "y"
      ],
      [
        "it",
        "ud"
      ],
      [
        "con",
        "st"
      ],
      [
        "math",
        "rm"
      ],
      [
        "Ġl",
        "ib"
      ],
      [
        "Ġest",
        "ab"
      ],
      [
        "ru",
        "ction"
      ],
      [
        "Ġd",
        "ocument"
      ],
      [
        "Ġprovid",
        "ed"
      ],
      [
        "ple",
        "ment"
      ],
      [
        "Ġsur",
        "face"
      ],
      [
        "Ġd",
        "one"
      ],
      [
        "Ġman",
        "ag"
      ],
      [
        "Ġmult",
        "iple"
      ],
      [
        "er",
        "al"
      ],
      [
        "b",
        "o"
      ],
      [
        "Ġpri",
        "v"
      ],
      [
        "Ġne",
        "ar"
      ],
      [
        "ru",
        "g"
      ],
      [
        "tern",
        "al"
      ],
      [
        "Ġris",
        "k"
      ],
      [
        "S",
        "E"
      ],
      [
        "V",
        "al"
      ],
      [
        "as",
        "a"
      ],
      [
        "Ġincre",
        "ase"
      ],
      [
        "ĠS",
        "he"
      ],
      [
        "--------------------------------",
        "--------------------------------"
      ],
      [
        ".",
        "["
      ],
      [
        "Ġin",
        "put"
      ],
      [
        "Ġp",
        "ress"
      ],
      [
        "our",
        "ces"
      ],
      [
        "Ġrequ",
        "est"
      ],
      [
        "Ġbus",
        "iness"
      ],
      [
        "Ġbec",
        "ome"
      ],
      [
        "ĠC",
        "o"
      ],
      [
        "i",
        "res"
      ],
      [
        "at",
        "ory"
      ],
      [
        "id",
        "s"
      ],
      [
        ")",
        "*"
      ],
      [
        "A",
        "n"
      ],
      [
        "row",
        "s"
      ],
      [
        "angu",
        "age"
      ],
      [
        "Ġde",
        "cre"
      ],
      [
        "Ġs",
        "ou"
      ],
      [
        "Ġbeh",
        "av"
      ],
      [
        "ac",
        "ed"
      ],
      [
        "ĠSt",
        "ate"
      ],
      [
        "htt",
        "p"
      ],
      [
        "+",
        "+"
      ],
      [
        "Ġreport",
        "ed"
      ],
      [
        "Ġc",
        "ult"
      ],
      [
        "le",
        "te"
      ],
      [
        "Ġp",
        "ay"
      ],
      [
        "8",
        "7"
      ],
      [
        "~",
        "~"
      ],
      [
        "Ġb",
        "ig"
      ],
      [
        "0",
        "7"
      ],
      [
        "al",
        "f"
      ],
      [
        "Ġm",
        "or"
      ],
      [
        "Ġso",
        "ft"
      ],
      [
        "Ġ(",
        "*"
      ],
      [
        "d",
        "om"
      ],
      [
        "Ġd",
        "est"
      ],
      [
        "5",
        "7"
      ],
      [
        "Ġn",
        "ormal"
      ],
      [
        "is",
        "ing"
      ],
      [
        "ens",
        "ity"
      ],
      [
        "Ġsub",
        "st"
      ],
      [
        "Ġal",
        "ready"
      ],
      [
        "on",
        "es"
      ],
      [
        "Ġa",
        "ir"
      ],
      [
        "Ġacc",
        "ount"
      ],
      [
        "r",
        "ho"
      ],
      [
        "}",
        "{\\"
      ],
      [
        "viron",
        "ment"
      ],
      [
        "um",
        "ber"
      ],
      [
        "x",
        "im"
      ],
      [
        "g",
        "round"
      ],
      [
        "ĠB",
        "e"
      ],
      [
        "8",
        "9"
      ],
      [
        "c",
        "le"
      ],
      [
        "A",
        "B"
      ],
      [
        "Ġse",
        "en"
      ],
      [
        "00",
        "1"
      ],
      [
        "or",
        "th"
      ],
      [
        "c",
        "ular"
      ],
      [
        "+",
        "\\"
      ],
      [
        "epend",
        "ent"
      ],
      [
        "0",
        "9"
      ],
      [
        "ĠS",
        "ee"
      ],
      [
        "l",
        "a"
      ],
      [
        "ix",
        "ed"
      ],
      [
        "Ġfact",
        "or"
      ],
      [
        "Ġwh",
        "y"
      ],
      [
        "Ġm",
        "ax"
      ],
      [
        "n",
        "o"
      ],
      [
        "U",
        "R"
      ],
      [
        "ct",
        "or"
      ],
      [
        "il",
        "es"
      ],
      [
        "Ġresp",
        "ons"
      ],
      [
        "re",
        "l"
      ],
      [
        "med",
        "i"
      ],
      [
        "ĠO",
        "r"
      ],
      [
        "Ġhe",
        "art"
      ],
      [
        "Ġro",
        "le"
      ],
      [
        "Ġm",
        "s"
      ],
      [
        "Ġspe",
        "ct"
      ],
      [
        "^",
        "\\"
      ],
      [
        "Ġm",
        "ove"
      ],
      [
        "Ġto",
        "get"
      ],
      [
        "0",
        "6"
      ],
      [
        "t",
        "ime"
      ],
      [
        "Ġev",
        "alu"
      ],
      [
        "Ġcomp",
        "let"
      ],
      [
        "$",
        "-"
      ],
      [
        "*",
        ","
      ],
      [
        "Ġ=",
        ">"
      ],
      [
        "Ġc",
        "y"
      ],
      [
        "4",
        "6"
      ],
      [
        "Ġp",
        "ued"
      ],
      [
        "Ġ",
        "ill"
      ],
      [
        "Ġtoget",
        "her"
      ],
      [
        "og",
        "en"
      ],
      [
        "L",
        "ist"
      ],
      [
        "Ġth",
        "ough"
      ],
      [
        "Ġ",
        "version"
      ],
      [
        "w",
        "ise"
      ],
      [
        "Ġacc",
        "ording"
      ],
      [
        "com",
        "m"
      ],
      [
        "re",
        "m"
      ],
      [
        "d",
        "ate"
      ],
      [
        "Ġe",
        "p"
      ],
      [
        "Ġthou",
        "ght"
      ],
      [
        "--------",
        "----"
      ],
      [
        "or",
        "ies"
      ],
      [
        "ic",
        "y"
      ],
      [
        "t",
        "d"
      ],
      [
        "ĠC",
        "ont"
      ],
      [
        "n",
        "u"
      ],
      [
        "in",
        "o"
      ],
      [
        "C",
        "ol"
      ],
      [
        "Ġother",
        "s"
      ],
      [
        "\\",
        "_"
      ],
      [
        "Ġserv",
        "ice"
      ],
      [
        "t",
        "est"
      ],
      [
        "Ġ$",
        "("
      ],
      [
        "Ġb",
        "ound"
      ],
      [
        "Ġdef",
        "ined"
      ],
      [
        "Ġan",
        "sw"
      ],
      [
        "ill",
        "ed"
      ],
      [
        "g",
        "ment"
      ],
      [
        "Ġf",
        "ar"
      ],
      [
        "Ġf",
        "oc"
      ],
      [
        "Ġdev",
        "ice"
      ],
      [
        "s",
        "l"
      ],
      [
        "Ġde",
        "ath"
      ],
      [
        "Ġke",
        "ep"
      ],
      [
        "Ġ",
        "q"
      ],
      [
        "ch",
        "ie"
      ],
      [
        "A",
        "r"
      ],
      [
        "m",
        "y"
      ],
      [
        "Ġm",
        "aking"
      ],
      [
        "Ġre",
        "d"
      ],
      [
        "//",
        "//"
      ],
      [
        "ĠF",
        "ig"
      ],
      [
        "Ġd",
        "ig"
      ],
      [
        "Ġc",
        "ourse"
      ],
      [
        "ac",
        "he"
      ],
      [
        "Fig",
        "ure"
      ],
      [
        "Ġc",
        "ause"
      ],
      [
        "Ġproper",
        "ty"
      ],
      [
        "im",
        "port"
      ],
      [
        "Ġb",
        "ase"
      ],
      [
        "Ġfe",
        "el"
      ],
      [
        "Ġg",
        "ot"
      ],
      [
        "m",
        "p"
      ],
      [
        "ĠB",
        "rah"
      ],
      [
        "Ġbe",
        "g"
      ],
      [
        "um",
        "p"
      ],
      [
        "b",
        "ig"
      ],
      [
        "ĠE",
        "n"
      ],
      [
        "ist",
        "ic"
      ],
      [
        "ic",
        "ult"
      ],
      [
        "Ġs",
        "chool"
      ],
      [
        "ĠO",
        "ne"
      ],
      [
        "ur",
        "ation"
      ],
      [
        "Ġapplic",
        "ation"
      ],
      [
        "Ġcon",
        "cent"
      ],
      [
        "I",
        "s"
      ],
      [
        "Ġcl",
        "in"
      ],
      [
        "Ġiss",
        "ue"
      ],
      [
        "Ġthe",
        "refore"
      ],
      [
        "Ġappro",
        "ach"
      ],
      [
        "Ġwe",
        "ek"
      ],
      [
        "Ġc",
        "ard"
      ],
      [
        "Ġcons",
        "ist"
      ],
      [
        "4",
        "2"
      ],
      [
        "it",
        "er"
      ],
      [
        "Ġoff",
        "ic"
      ],
      [
        "Ġpos",
        "itive"
      ],
      [
        "led",
        "ge"
      ],
      [
        "p",
        "m"
      ],
      [
        "Ġpoint",
        "s"
      ],
      [
        "Ġde",
        "b"
      ],
      [
        "n",
        "ed"
      ],
      [
        "Ġelement",
        "s"
      ],
      [
        "ĠW",
        "ith"
      ],
      [
        "u",
        "k"
      ],
      [
        "Ġl",
        "ot"
      ],
      [
        "Ġlim",
        "it"
      ],
      [
        "Ġrel",
        "ations"
      ],
      [
        "cre",
        "t"
      ],
      [
        "er",
        "a"
      ],
      [
        "Ġm",
        "ill"
      ],
      [
        "Ġs",
        "us"
      ],
      [
        "ir",
        "m"
      ],
      [
        "t",
        "au"
      ],
      [
        "Ġrese",
        "arch"
      ],
      [
        "Ġben",
        "ef"
      ],
      [
        "is",
        "ter"
      ],
      [
        "Ġwe",
        "ight"
      ],
      [
        "Ġshow",
        "ed"
      ],
      [
        "Ġt",
        "ell"
      ],
      [
        "u",
        "ck"
      ],
      [
        "um",
        "n"
      ],
      [
        "Ġon",
        "ce"
      ],
      [
        "d",
        "elta"
      ],
      [
        "r",
        "am"
      ],
      [
        "us",
        "es"
      ],
      [
        "Ġm",
        "ut"
      ],
      [
        "g",
        "es"
      ],
      [
        "Ġn",
        "ull"
      ],
      [
        "le",
        "y"
      ],
      [
        "P",
        "h"
      ],
      [
        "}}",
        "\\"
      ],
      [
        "Ġmethod",
        "s"
      ],
      [
        "r",
        "s"
      ],
      [
        "Ġ",
        "ir"
      ],
      [
        "Ġ5",
        "0"
      ],
      [
        "Ġinte",
        "gr"
      ],
      [
        "Ġsol",
        "ution"
      ],
      [
        "Ġf",
        "ac"
      ],
      [
        "Ġde",
        "m"
      ],
      [
        "ĠL",
        "e"
      ],
      [
        "im",
        "um"
      ],
      [
        "Ġor",
        "d"
      ],
      [
        "'",
        "re"
      ],
      [
        "he",
        "ad"
      ],
      [
        "Ġconsid",
        "ered"
      ],
      [
        "Ġreg",
        "ion"
      ],
      [
        "in",
        "ary"
      ],
      [
        "Ġw",
        "rit"
      ],
      [
        "Ġdise",
        "ase"
      ],
      [
        "Ġde",
        "g"
      ],
      [
        "ut",
        "ure"
      ],
      [
        "i",
        "ver"
      ],
      [
        "Ġde",
        "mon"
      ],
      [
        "pos",
        "ed"
      ],
      [
        "U",
        "T"
      ],
      [
        "Ġpri",
        "or"
      ],
      [
        "ffic",
        "ient"
      ],
      [
        "8",
        "6"
      ],
      [
        "r",
        "ist"
      ],
      [
        "Ġ\\",
        "\\"
      ],
      [
        "b",
        "it"
      ],
      [
        "Ġrel",
        "ated"
      ],
      [
        "Ġd",
        "iv"
      ],
      [
        "ide",
        "o"
      ],
      [
        "ab",
        "or"
      ],
      [
        "ut",
        "es"
      ],
      [
        "pp",
        "er"
      ],
      [
        "Ġm",
        "om"
      ],
      [
        "Ġn",
        "at"
      ],
      [
        "],",
        "[@"
      ],
      [
        "Ġv",
        "oid"
      ],
      [
        "ou",
        "d"
      ],
      [
        "C",
        "ont"
      ],
      [
        "Ġh",
        "ost"
      ],
      [
        "Ġc",
        "ustom"
      ],
      [
        "Ġshow",
        "s"
      ],
      [
        "re",
        "c"
      ],
      [
        "%",
        ")"
      ],
      [
        "l",
        "am"
      ],
      [
        "ĠB",
        "y"
      ],
      [
        "Ġpartic",
        "ip"
      ],
      [
        "Ġaut",
        "hor"
      ],
      [
        "v",
        "ant"
      ],
      [
        "Ġth",
        "ird"
      ],
      [
        "Ġb",
        "attle"
      ],
      [
        "A",
        "pp"
      ],
      [
        "con",
        "om"
      ],
      [
        "Ġs",
        "ite"
      ],
      [
        "Ġdiff",
        "icult"
      ],
      [
        "Ġbel",
        "ow"
      ],
      [
        "s",
        "ide"
      ],
      [
        "and",
        "om"
      ],
      [
        "g",
        "ed"
      ],
      [
        "C",
        "H"
      ],
      [
        "Ġrespect",
        "ively"
      ],
      [
        "H",
        "ow"
      ],
      [
        "Ġt",
        "w"
      ],
      [
        "Ġf",
        "ood"
      ],
      [
        "Ġl",
        "ength"
      ],
      [
        "ome",
        "ga"
      ],
      [
        "ĠA",
        "ss"
      ],
      [
        "op",
        "s"
      ],
      [
        "l",
        "ied"
      ],
      [
        "O",
        "P"
      ],
      [
        "ord",
        "er"
      ],
      [
        "om",
        "s"
      ],
      [
        "com",
        "p"
      ],
      [
        "ul",
        "ated"
      ],
      [
        "Ġr",
        "at"
      ],
      [
        "il",
        "it"
      ],
      [
        "t",
        "imes"
      ],
      [
        "Y",
        "ou"
      ],
      [
        "Ġear",
        "ly"
      ],
      [
        "Ġwork",
        "ing"
      ],
      [
        "Ġf",
        "ive"
      ],
      [
        "Ġte",
        "am"
      ],
      [
        "ĠA",
        "fter"
      ],
      [
        "Ġc",
        "ame"
      ],
      [
        "st",
        "ate"
      ],
      [
        "Ġm",
        "ind"
      ],
      [
        "Ġin",
        "hib"
      ],
      [
        "Ġspec",
        "ies"
      ],
      [
        "Ġd",
        "ire"
      ],
      [
        "Ġpre",
        "dict"
      ],
      [
        "Ġf",
        "alse"
      ],
      [
        "O",
        "S"
      ],
      [
        "ĠTh",
        "us"
      ],
      [
        "Ġdemon",
        "str"
      ],
      [
        "T",
        "R"
      ],
      [
        "Ġin",
        "j"
      ],
      [
        "Ġim",
        "mun"
      ],
      [
        "ĠI",
        "N"
      ],
      [
        "pos",
        "ition"
      ],
      [
        "x",
        "i"
      ],
      [
        "sp",
        "an"
      ],
      [
        "is",
        "c"
      ],
      [
        "H",
        "e"
      ],
      [
        "Ġb",
        "it"
      ],
      [
        "ĠI",
        "nt"
      ],
      [
        "ur",
        "s"
      ],
      [
        "'",
        "ve"
      ],
      [
        "Ġag",
        "re"
      ],
      [
        "Ġcorre",
        "ct"
      ],
      [
        "B",
        "ut"
      ],
      [
        "Ġw",
        "a"
      ],
      [
        "o",
        "es"
      ],
      [
        "Ġa",
        "chie"
      ],
      [
        "ĠC",
        "an"
      ],
      [
        "Ġex",
        "am"
      ],
      [
        "ĠL",
        "a"
      ],
      [
        "Ġim",
        "plement"
      ],
      [
        "od",
        "es"
      ],
      [
        "op",
        "h"
      ],
      [
        "am",
        "a"
      ],
      [
        "O",
        "n"
      ],
      [
        "Ġmodel",
        "s"
      ],
      [
        "Ġin",
        "du"
      ],
      [
        "lob",
        "al"
      ],
      [
        "ĠB",
        "ook"
      ],
      [
        "ol",
        "s"
      ],
      [
        "Ġinf",
        "lu"
      ],
      [
        "ĠB",
        "l"
      ],
      [
        "Ġc",
        "ut"
      ],
      [
        "D",
        "E"
      ],
      [
        "i",
        "qu"
      ],
      [
        "Ġ(",
        "-"
      ],
      [
        "m",
        "ber"
      ],
      [
        "Ġwho",
        "le"
      ],
      [
        "et",
        "ition"
      ],
      [
        "Ġperform",
        "ance"
      ],
      [
        "ess",
        "ion"
      ],
      [
        "d",
        "ro"
      ],
      [
        "8",
        "4"
      ],
      [
        "min",
        "ist"
      ],
      [
        "ĠUn",
        "iversity"
      ],
      [
        "ol",
        "ve"
      ],
      [
        "Ġr",
        "ather"
      ],
      [
        "ere",
        "nces"
      ],
      [
        "Ġout",
        "put"
      ],
      [
        "r",
        "ad"
      ],
      [
        "ie",
        "f"
      ],
      [
        "w",
        "ith"
      ],
      [
        "]",
        ")"
      ],
      [
        "Ġcan",
        "cer"
      ],
      [
        "com",
        "es"
      ],
      [
        "Ġem",
        "b"
      ],
      [
        "Ġdep",
        "end"
      ],
      [
        "Ġsignificant",
        "ly"
      ],
      [
        "Ġass",
        "ess"
      ],
      [
        "Ġy",
        "et"
      ],
      [
        "r",
        "ary"
      ],
      [
        "Ġen",
        "ough"
      ],
      [
        "Ġan",
        "g"
      ],
      [
        "Ġhim",
        "self"
      ],
      [
        "one",
        "y"
      ],
      [
        "part",
        "ial"
      ],
      [
        "o",
        "ff"
      ],
      [
        "l",
        "ist"
      ],
      [
        "Ġsim",
        "ple"
      ],
      [
        "un",
        "e"
      ],
      [
        "Ġmonth",
        "s"
      ],
      [
        "ly",
        "ing"
      ],
      [
        "I",
        "V"
      ],
      [
        "Ġut",
        "il"
      ],
      [
        "Ġpr",
        "int"
      ],
      [
        "it",
        "ch"
      ],
      [
        "the",
        "ta"
      ],
      [
        "b",
        "ject"
      ],
      [
        "id",
        "a"
      ],
      [
        "!",
        "["
      ],
      [
        "Ġass",
        "um"
      ],
      [
        "Ġdef",
        "in"
      ],
      [
        "A",
        "V"
      ],
      [
        "Ġt",
        "able"
      ],
      [
        "r",
        "is"
      ],
      [
        "}$",
        ","
      ],
      [
        "Ġw",
        "omen"
      ],
      [
        "Ġ",
        "..."
      ],
      [
        "Ġb",
        "lood"
      ],
      [
        ".",
        ")"
      ],
      [
        "ag",
        "ed"
      ],
      [
        "Ġv",
        "ar"
      ],
      [
        "ht",
        "ml"
      ],
      [
        "ac",
        "hed"
      ],
      [
        "Ġdis",
        "play"
      ],
      [
        "Ġt",
        "um"
      ],
      [
        "Ġu",
        "r"
      ],
      [
        "D",
        "ata"
      ],
      [
        "Ġs",
        "al"
      ],
      [
        "p",
        "ose"
      ],
      [
        "en",
        "ces"
      ],
      [
        "\"",
        ");"
      ],
      [
        "Ġt",
        "aken"
      ],
      [
        "is",
        "f"
      ],
      [
        "5",
        "9"
      ],
      [
        "ĠB",
        "h"
      ],
      [
        "Ġe",
        "ver"
      ],
      [
        "Ġp",
        "ick"
      ],
      [
        "ind",
        "ing"
      ],
      [
        "ĠT",
        "e"
      ],
      [
        "ĠP",
        "at"
      ],
      [
[...]
